{
  "version": "1.0",
  "truncation": null,
  "padding": null,
  "added_tokens": [
    {
      "id": 0,
      "content": "<pad>",
      "single_word": false,
      "lstrip": false,
      "rstrip": false,
      "normalized": false,
      "special": true
    },
    {
      "id": 1,
      "content": "<unk>",
      "single_word": false,
      "lstrip": false,
      "rstrip": false,
      "normalized": false,
      "special": true
    },
    {
      "id": 2,
      "content": "<sos>",
      "single_word": false,
      "lstrip": false,
      "rstrip": false,
      "normalized": false,
      "special": true
    },
    {
      "id": 3,
      "content": "<eos>",
      "single_word": false,
      "lstrip": false,
      "rstrip": false,
      "normalized": false,
      "special": true
    }
  ],
  "normalizer": null,
  "pre_tokenizer": {
    "type": "Whitespace"
  },
  "post_processor": null,
  "decoder": null,
  "model": {
    "type": "BPE",
    "dropout": null,
    "unk_token": "<unk>",
    "continuing_subword_prefix": null,
    "end_of_word_suffix": null,
    "fuse_unk": false,
    "byte_fallback": false,
    "ignore_merges": false,
    "vocab": {
      "<pad>": 0,
      "<unk>": 1,
      "<sos>": 2,
      "<eos>": 3,
      "!": 4,
      ",": 5,
      "-": 6,
      ".": 7,
      "0": 8,
      "1": 9,
      "2": 10,
      "3": 11,
      "4": 12,
      "5": 13,
      "6": 14,
      "7": 15,
      "8": 16,
      "9": 17,
      ":": 18,
      ";": 19,
      "?": 20,
      "a": 21,
      "b": 22,
      "c": 23,
      "d": 24,
      "e": 25,
      "f": 26,
      "g": 27,
      "h": 28,
      "i": 29,
      "j": 30,
      "k": 31,
      "l": 32,
      "m": 33,
      "n": 34,
      "o": 35,
      "p": 36,
      "q": 37,
      "r": 38,
      "s": 39,
      "t": 40,
      "u": 41,
      "v": 42,
      "w": 43,
      "x": 44,
      "y": 45,
      "z": 46,
      "à": 47,
      "á": 48,
      "â": 49,
      "ã": 50,
      "ä": 51,
      "ç": 52,
      "è": 53,
      "é": 54,
      "ê": 55,
      "ë": 56,
      "ì": 57,
      "í": 58,
      "ï": 59,
      "ñ": 60,
      "ò": 61,
      "ó": 62,
      "ô": 63,
      "õ": 64,
      "ö": 65,
      "ø": 66,
      "ù": 67,
      "ú": 68,
      "ü": 69,
      "ý": 70,
      "ā": 71,
      "ă": 72,
      "ć": 73,
      "č": 74,
      "đ": 75,
      "ĩ": 76,
      "ť": 77,
      "ũ": 78,
      "ơ": 79,
      "ư": 80,
      "́": 81,
      "̣": 82,
      "̀": 83,
      "́": 84,
      "ย": 85,
      "ร": 86,
      "อ": 87,
      "่": 88,
      "ạ": 89,
      "ả": 90,
      "ấ": 91,
      "ầ": 92,
      "ẩ": 93,
      "ẫ": 94,
      "ậ": 95,
      "ắ": 96,
      "ằ": 97,
      "ẳ": 98,
      "ẵ": 99,
      "ặ": 100,
      "ẹ": 101,
      "ẻ": 102,
      "ẽ": 103,
      "ế": 104,
      "ề": 105,
      "ể": 106,
      "ễ": 107,
      "ệ": 108,
      "ỉ": 109,
      "ị": 110,
      "ọ": 111,
      "ỏ": 112,
      "ố": 113,
      "ồ": 114,
      "ổ": 115,
      "ỗ": 116,
      "ộ": 117,
      "ớ": 118,
      "ờ": 119,
      "ở": 120,
      "ỡ": 121,
      "ợ": 122,
      "ụ": 123,
      "ủ": 124,
      "ứ": 125,
      "ừ": 126,
      "ử": 127,
      "ữ": 128,
      "ự": 129,
      "ỳ": 130,
      "ỵ": 131,
      "ỷ": 132,
      "ỹ": 133,
      "ng": 134,
      "nh": 135,
      "ch": 136,
      "th": 137,
      "tr": 138,
      "kh": 139,
      "và": 140,
      "là": 141,
      "ôi": 142,
      "tôi": 143,
      "ph": 144,
      "ông": 145,
      "qu": 146,
      "ột": 147,
      "một": 148,
      "có": 149,
      "gi": 150,
      "chú": 151,
      "cá": 152,
      "chúng": 153,
      "ên": 154,
      "iệ": 155,
      "ững": 156,
      "ời": 157,
      "những": 158,
      "ới": 159,
      "củ": 160,
      "của": 161,
      "iế": 162,
      "ất": 163,
      "ta": 164,
      "ạn": 165,
      "nó": 166,
      "không": 167,
      "nà": 168,
      "đó": 169,
      "iề": 170,
      "bạn": 171,
      "ượ": 172,
      "ong": 173,
      "như": 174,
      "ười": 175,
      "người": 176,
      "iều": 177,
      "trong": 178,
      "ại": 179,
      "ngh": 180,
      "thể": 181,
      "các": 182,
      "họ": 183,
      "ược": 184,
      "uy": 185,
      "này": 186,
      "đã": 187,
      "được": 188,
      "ra": 189,
      "ây": 190,
      "ình": 191,
      "ot": 192,
      "với": 193,
      "ấy": 194,
      "cho": 195,
      "quot": 196,
      "sự": 197,
      "ay": 198,
      "mà": 199,
      "làm": 200,
      "an": 201,
      "ần": 202,
      "ải": 203,
      "ang": 204,
      "để": 205,
      "điều": 206,
      "iên": 207,
      "ằng": 208,
      "cả": 209,
      "về": 210,
      "ực": 211,
      "sẽ": 212,
      "ác": 213,
      "ho": 214,
      "khi": 215,
      "thế": 216,
      "ống": 217,
      "ân": 218,
      "ơn": 219,
      "anh": 220,
      "ật": 221,
      "iể": 222,
      "iết": 223,
      "ầu": 224,
      "on": 225,
      "từ": 226,
      "ướ": 227,
      "ến": 228,
      "ành": 229,
      "nói": 230,
      "ai": 231,
      "đây": 232,
      "inh": 233,
      "nhưng": 234,
      "ao": 235,
      "ết": 236,
      "nă": 237,
      "ức": 238,
      "iện": 239,
      "đến": 240,
      "uố": 241,
      "phải": 242,
      "ính": 243,
      "vào": 244,
      "iệc": 245,
      "vì": 246,
      "ước": 247,
      "việc": 248,
      "rằng": 249,
      "ườ": 250,
      "gì": 251,
      "đang": 252,
      "độ": 253,
      "àn": 254,
      "ường": 255,
      "au": 256,
      "in": 257,
      "lại": 258,
      "rất": 259,
      "ản": 260,
      "ận": 261,
      "cách": 262,
      "thấy": 263,
      "nghĩ": 264,
      "âu": 265,
      "hơn": 266,
      "nhiều": 267,
      "thực": 268,
      "ùng": 269,
      "ươ": 270,
      "ài": 271,
      "con": 272,
      "đầu": 273,
      "iến": 274,
      "ương": 275,
      "ậy": 276,
      "chỉ": 277,
      "cái": 278,
      "học": 279,
      "công": 280,
      "trên": 281,
      "khác": 282,
      "ối": 283,
      "ạo": 284,
      "ổi": 285,
      "ọi": 286,
      "vậy": 287,
      "ếu": 288,
      "nào": 289,
      "chuy": 290,
      "biết": 291,
      "--": 292,
      "đề": 293,
      "năm": 294,
      "phá": 295,
      "ung": 296,
      "iệu": 297,
      "àng": 298,
      "to": 299,
      "thứ": 300,
      "đi": 301,
      "ũng": 302,
      "ơi": 303,
      "nếu": 304,
      "uốn": 305,
      "thành": 306,
      "dụ": 307,
      "lo": 308,
      "ộc": 309,
      "nhà": 310,
      "ắt": 311,
      "số": 312,
      "cũng": 313,
      "áng": 314,
      "ích": 315,
      "kho": 316,
      "uộc": 317,
      "em": 318,
      "bị": 319,
      "quan": 320,
      "nên": 321,
      "ăn": 322,
      "ập": 323,
      "muốn": 324,
      "ồi": 325,
      "ấn": 326,
      "eo": 327,
      "úc": 328,
      "ởi": 329,
      "mình": 330,
      "chính": 331,
      "tại": 332,
      "ữa": 333,
      "nhất": 334,
      "tạo": 335,
      "động": 336,
      "giờ": 337,
      "giới": 338,
      "ưở": 339,
      "ưởng": 340,
      "ặt": 341,
      "ái": 342,
      "án": 343,
      "mọi": 344,
      "hiện": 345,
      "bởi": 346,
      "tất": 347,
      "ền": 348,
      "lớ": 349,
      "hình": 350,
      "òn": 351,
      "tiế": 352,
      "ày": 353,
      "ắc": 354,
      "êu": 355,
      "ưa": 356,
      "thu": 357,
      "cảm": 358,
      "ỏi": 359,
      "ện": 360,
      "iểu": 361,
      "sống": 362,
      "cuộc": 363,
      "hay": 364,
      "sau": 365,
      "nhận": 366,
      "âm": 367,
      "quy": 368,
      "ượng": 369,
      "ứng": 370,
      "tố": 371,
      "ìn": 372,
      "thật": 373,
      "cần": 374,
      "tự": 375,
      "còn": 376,
      "thì": 377,
      "am": 378,
      "ặc": 379,
      "er": 380,
      "do": 381,
      "đị": 382,
      "theo": 383,
      "ội": 384,
      "ôn": 385,
      "00": 386,
      "đồ": 387,
      "ọng": 388,
      "câu": 389,
      "nhìn": 390,
      "en": 391,
      "tin": 392,
      "òng": 393,
      "bắt": 394,
      "bằng": 395,
      "tới": 396,
      "cùng": 397,
      "ẫn": 398,
      "di": 399,
      "lớn": 400,
      "bản": 401,
      "giá": 402,
      "iểm": 403,
      "ngày": 404,
      "cứ": 405,
      "tế": 406,
      "sao": 407,
      "thời": 408,
      "dụng": 409,
      "bộ": 410,
      "lên": 411,
      "chuyện": 412,
      "qua": 413,
      "lu": 414,
      "cơ": 415,
      "nhân": 416,
      "ảng": 417,
      "trước": 418,
      "trở": 419,
      "sinh": 420,
      "iệm": 421,
      "ỗi": 422,
      "phần": 423,
      "nước": 424,
      "ánh": 425,
      "sử": 426,
      "năng": 427,
      "phát": 428,
      "ục": 429,
      "ìm": 430,
      "ảnh": 431,
      "vấn": 432,
      "ạt": 433,
      "toàn": 434,
      "thay": 435,
      "má": 436,
      "tu": 437,
      "đổi": 438,
      "nơi": 439,
      "gia": 440,
      "iệt": 441,
      "thông": 442,
      "dự": 443,
      "iển": 444,
      "ảo": 445,
      "ti": 446,
      "ách": 447,
      "tìm": 448,
      "mới": 449,
      "hã": 450,
      "nhau": 451,
      "hệ": 452,
      "trường": 453,
      "ốc": 454,
      "xu": 455,
      "định": 456,
      "cô": 457,
      "ia": 458,
      "kết": 459,
      "nhiên": 460,
      "tính": 461,
      "tốt": 462,
      "mạ": 463,
      "tuy": 464,
      "tưởng": 465,
      "ar": 466,
      "lý": 467,
      "trình": 468,
      "rồi": 469,
      "hàng": 470,
      "ấu": 471,
      "vật": 472,
      "ăng": 473,
      "ấp": 474,
      "ảy": 475,
      "hỏi": 476,
      "liệu": 477,
      "máy": 478,
      "mặt": 479,
      "ợp": 480,
      "hợp": 481,
      "ạc": 482,
      "tiếp": 483,
      "kinh": 484,
      "ển": 485,
      "hãy": 486,
      "hội": 487,
      "hành": 488,
      "hai": 489,
      "ắn": 490,
      "chiế": 491,
      "vị": 492,
      "thiết": 493,
      "nữa": 494,
      "át": 495,
      "hoá": 496,
      "thức": 497,
      "gian": 498,
      "xem": 499,
      "vi": 500,
      "bà": 501,
      "trung": 502,
      "trọng": 503,
      "đồng": 504,
      "thích": 505,
      "giải": 506,
      "ễn": 507,
      "ồn": 508,
      "ệnh": 509,
      "đối": 510,
      "bất": 511,
      "trẻ": 512,
      "vài": 513,
      "đo": 514,
      "lượng": 515,
      "thường": 516,
      "ắng": 517,
      "giống": 518,
      "đều": 519,
      "lần": 520,
      "sáng": 521,
      "quá": 522,
      "tiên": 523,
      "loại": 524,
      "bao": 525,
      "tâm": 526,
      "hiểu": 527,
      "bệnh": 528,
      "nay": 529,
      "ộng": 530,
      "cứu": 531,
      "nghệ": 532,
      "thống": 533,
      "ngo": 534,
      "phi": 535,
      "ịch": 536,
      "viên": 537,
      "điểm": 538,
      "nghĩa": 539,
      "úng": 540,
      "êm": 541,
      "đại": 542,
      "ệt": 543,
      "iền": 544,
      "gọi": 545,
      "tương": 546,
      "ri": 547,
      "giả": 548,
      "quốc": 549,
      "nhỏ": 550,
      "hoặc": 551,
      "hoàn": 552,
      "đưa": 553,
      "mỗi": 554,
      "lúc": 555,
      "al": 556,
      "..": 557,
      "tác": 558,
      "đường": 559,
      "quả": 560,
      "nghiệm": 561,
      "vẫn": 562,
      "chiếc": 563,
      "bây": 564,
      "nguy": 565,
      "bên": 566,
      "dân": 567,
      "thuật": 568,
      "xảy": 569,
      "dùng": 570,
      "biệt": 571,
      "tổ": 572,
      "ẳng": 573,
      "từng": 574,
      "đất": 575,
      "truy": 576,
      "nghe": 577,
      "triển": 578,
      "chuyển": 579,
      "diễn": 580,
      "khoảng": 581,
      "ẩn": 582,
      "iệp": 583,
      "ọn": 584,
      "ão": 585,
      "cố": 586,
      "trị": 587,
      "tuyệt": 588,
      "đúng": 589,
      "quyết": 590,
      "cao": 591,
      "giáo": 592,
      "úp": 593,
      "dạ": 594,
      "phụ": 595,
      "cầu": 596,
      "ừng": 597,
      "ba": 598,
      "es": 599,
      "gh": 600,
      "khu": 601,
      "chất": 602,
      "la": 603,
      "kế": 604,
      "lực": 605,
      "uối": 606,
      "bu": 607,
      "chủ": 608,
      "liên": 609,
      "khá": 610,
      "lời": 611,
      "bảo": 612,
      "so": 613,
      "tiến": 614,
      "áo": 615,
      "giúp": 616,
      "tình": 617,
      "ép": 618,
      "ợi": 619,
      "ro": 620,
      "ầm": 621,
      "nghiên": 622,
      "óng": 623,
      "nữ": 624,
      "ắp": 625,
      "ăm": 626,
      "phòng": 627,
      "bài": 628,
      "ngay": 629,
      "chưa": 630,
      "ứa": 631,
      "ẩm": 632,
      "út": 633,
      "xe": 634,
      "bình": 635,
      "hết": 636,
      "phí": 637,
      "ưới": 638,
      "đơn": 639,
      "te": 640,
      "xuất": 641,
      "phương": 642,
      "điện": 643,
      "ướng": 644,
      "tho": 645,
      "mang": 646,
      "não": 647,
      "phân": 648,
      "tranh": 649,
      "tiếng": 650,
      "truyền": 651,
      "khó": 652,
      "tập": 653,
      "tuổi": 654,
      "tay": 655,
      "co": 656,
      "kỳ": 657,
      "đặt": 658,
      "cuối": 659,
      "el": 660,
      "tiền": 661,
      "ậu": 662,
      "khoa": 663,
      "biến": 664,
      "yêu": 665,
      "tượng": 666,
      "pháp": 667,
      "giữa": 668,
      "sản": 669,
      "gần": 670,
      "ét": 671,
      "khả": 672,
      "ít": 673,
      "lấy": 674,
      "chu": 675,
      "chiến": 676,
      "bé": 677,
      "thú": 678,
      "ạnh": 679,
      "trả": 680,
      "ặp": 681,
      "bỏ": 682,
      "xã": 683,
      "óc": 684,
      "hoạt": 685,
      "đáng": 686,
      "thị": 687,
      "ửa": 688,
      "chi": 689,
      "sách": 690,
      "mỹ": 691,
      "ne": 692,
      "chí": 693,
      "hiệu": 694,
      "kể": 695,
      "sức": 696,
      "phẩm": 697,
      "đời": 698,
      "thân": 699,
      "ấm": 700,
      "chơi": 701,
      "mất": 702,
      "minh": 703,
      "bức": 704,
      "ngoài": 705,
      "or": 706,
      "ọc": 707,
      "đấy": 708,
      "ẫu": 709,
      "loài": 710,
      "cộng": 711,
      "le": 712,
      "tài": 713,
      "mạnh": 714,
      "mô": 715,
      "tên": 716,
      "nghiệp": 717,
      "bố": 718,
      "khí": 719,
      "tinh": 720,
      "lập": 721,
      "dẫn": 722,
      "óm": 723,
      "văn": 724,
      "xây": 725,
      "ừa": 726,
      "trí": 727,
      "luôn": 728,
      "thử": 729,
      "li": 730,
      "vô": 731,
      "ậm": 732,
      "os": 733,
      "tiêu": 734,
      "phố": 735,
      "cụ": 736,
      "dựng": 737,
      "chứng": 738,
      "da": 739,
      "ví": 740,
      "mẹ": 741,
      "tử": 742,
      "nhạc": 743,
      "nguyên": 744,
      "mi": 745,
      "hướng": 746,
      "ầy": 747,
      "uyết": 748,
      "viết": 749,
      "kiến": 750,
      "trái": 751,
      "đâu": 752,
      "ào": 753,
      "tư": 754,
      "đặc": 755,
      "chức": 756,
      "quyền": 757,
      "ôm": 758,
      "chọn": 759,
      "ap": 760,
      "suy": 761,
      "vời": 762,
      "ạm": 763,
      "chế": 764,
      "chết": 765,
      "mạng": 766,
      "ngu": 767,
      "nền": 768,
      "đứa": 769,
      "giản": 770,
      "đạo": 771,
      "vụ": 772,
      "thần": 773,
      "sĩ": 774,
      "cấp": 775,
      "bào": 776,
      "đá": 777,
      "triệu": 778,
      "màu": 779,
      "iếm": 780,
      "tăng": 781,
      "ạp": 782,
      "lẽ": 783,
      "ẹp": 784,
      "10": 785,
      "dù": 786,
      "tháng": 787,
      "ạch": 788,
      "xin": 789,
      "khỏi": 790,
      "dưới": 791,
      "cực": 792,
      "đánh": 793,
      "mu": 794,
      "gặp": 795,
      "chẳng": 796,
      "ắm": 797,
      "chút": 798,
      "chia": 799,
      "xuống": 800,
      "nhóm": 801,
      "hôm": 802,
      "chắc": 803,
      "bay": 804,
      "rõ": 805,
      "dịch": 806,
      "thêm": 807,
      "mở": 808,
      "nhi": 809,
      "gắng": 810,
      "phép": 811,
      "âng": 812,
      "dữ": 813,
      "quay": 814,
      "20": 815,
      "quanh": 816,
      "khiến": 817,
      "xác": 818,
      "tham": 819,
      "vực": 820,
      "trò": 821,
      "ter": 822,
      "hi": 823,
      "mức": 824,
      "thuyết": 825,
      "đàn": 826,
      "duy": 827,
      "000": 828,
      "nhanh": 829,
      "đôi": 830,
      "nguồn": 831,
      "ty": 832,
      "dạng": 833,
      "xa": 834,
      "si": 835,
      "cảnh": 836,
      "gây": 837,
      "ồng": 838,
      "vọng": 839,
      "ca": 840,
      "vùng": 841,
      "ma": 842,
      "báo": 843,
      "châu": 844,
      "đẹp": 845,
      "càng": 846,
      "chị": 847,
      "vu": 848,
      "thậm": 849,
      "dễ": 850,
      "tục": 851,
      "giác": 852,
      "cây": 853,
      "trang": 854,
      "phía": 855,
      "đủ": 856,
      "đoạn": 857,
      "kì": 858,
      "sát": 859,
      "19": 860,
      "hu": 861,
      "vũ": 862,
      "nhớ": 863,
      "biểu": 864,
      "êng": 865,
      "phim": 866,
      "is": 867,
      "thương": 868,
      "hưởng": 869,
      "kiểm": 870,
      "ưu": 871,
      "vòng": 872,
      "phản": 873,
      "luận": 874,
      "...": 875,
      "dài": 876,
      "ngữ": 877,
      "ủng": 878,
      "hồi": 879,
      "trời": 880,
      "uốc": 881,
      "lợi": 882,
      "đầy": 883,
      "dục": 884,
      "cậu": 885,
      "kia": 886,
      "ạy": 887,
      "chân": 888,
      "thôi": 889,
      "bước": 890,
      "giảm": 891,
      "thuốc": 892,
      "lai": 893,
      "thư": 894,
      "vừa": 895,
      "ằm": 896,
      "kiếm": 897,
      "mục": 898,
      "tích": 899,
      "trăm": 900,
      "giao": 901,
      "đô": 902,
      "hộ": 903,
      "ựa": 904,
      "apos": 905,
      "toán": 906,
      "môi": 907,
      "tỉ": 908,
      "ưỡ": 909,
      "hạn": 910,
      "lệ": 911,
      "đình": 912,
      "ki": 913,
      "hầu": 914,
      "iếu": 915,
      "sâu": 916,
      "sai": 917,
      "địa": 918,
      "phục": 919,
      "trải": 920,
      "vâng": 921,
      "mã": 922,
      "nghi": 923,
      "tồn": 924,
      "thanh": 925,
      "lòng": 926,
      "re": 927,
      "giữ": 928,
      "luật": 929,
      "iềm": 930,
      "ụp": 931,
      "diện": 932,
      "tạp": 933,
      "lã": 934,
      "rộng": 935,
      "thí": 936,
      "mắt": 937,
      "dành": 938,
      "nối": 939,
      "đoán": 940,
      "đứng": 941,
      "tối": 942,
      "riêng": 943,
      "sợ": 944,
      "căn": 945,
      "àu": 946,
      "áp": 947,
      "thuộc": 948,
      "kỹ": 949,
      "uốt": 950,
      "đạt": 951,
      "vẻ": 952,
      "nổi": 953,
      "lịch": 954,
      "vệ": 955,
      "dạy": 956,
      "phủ": 957,
      "ted": 958,
      "50": 959,
      "thúc": 960,
      "thái": 961,
      "mẫu": 962,
      "ban": 963,
      "sẻ": 964,
      "xung": 965,
      "bàn": 966,
      "trông": 967,
      "tan": 968,
      "đọc": 969,
      "chương": 970,
      "kỷ": 971,
      "su": 972,
      "lớp": 973,
      "ck": 974,
      "yếu": 975,
      "ặng": 976,
      "trụ": 977,
      "vui": 978,
      "khắp": 979,
      "go": 980,
      "mối": 981,
      "chạy": 982,
      "cuốn": 983,
      "cha": 984,
      "mù": 985,
      "khoẻ": 986,
      "ngồi": 987,
      "tiết": 988,
      "buổi": 989,
      "thiên": 990,
      "gái": 991,
      "sư": 992,
      "suốt": 993,
      "ngôn": 994,
      "phút": 995,
      "trợ": 996,
      "biển": 997,
      "kiểu": 998,
      "sắc": 999,
      "ạng": 1000,
      "chắn": 1001,
      "ượt": 1002,
      "and": 1003,
      "hoa": 1004,
      "bi": 1005,
      "viện": 1006,
      "nam": 1007,
      "chung": 1008,
      "kiện": 1009,
      "ké": 1010,
      "trúc": 1011,
      "doanh": 1012,
      "đông": 1013,
      "mua": 1014,
      "vận": 1015,
      "sở": 1016,
      "xét": 1017,
      "cửa": 1018,
      "tuần": 1019,
      "khám": 1020,
      "cánh": 1021,
      "bo": 1022,
      "200": 1023,
      "èo": 1024,
      "ngạc": 1025,
      "bán": 1026,
      "lâu": 1027,
      "xúc": 1028,
      "nhiệm": 1029,
      "ràng": 1030,
      "thoại": 1031,
      "tra": 1032,
      "hoà": 1033,
      "đa": 1034,
      "hiểm": 1035,
      "ngôi": 1036,
      "mặc": 1037,
      "hy": 1038,
      "cấu": 1039,
      "kích": 1040,
      "us": 1041,
      "băng": 1042,
      "áu": 1043,
      "chụp": 1044,
      "quý": 1045,
      "as": 1046,
      "bác": 1047,
      "chuyên": 1048,
      "cung": 1049,
      "phức": 1050,
      "ưỡng": 1051,
      "nằm": 1052,
      "bóng": 1053,
      "kẻ": 1054,
      "ám": 1055,
      "nhập": 1056,
      "tim": 1057,
      "ĩnh": 1058,
      "độc": 1059,
      "ngành": 1060,
      "30": 1061,
      "cạnh": 1062,
      "hạnh": 1063,
      "ni": 1064,
      "chứ": 1065,
      "ghi": 1066,
      "trưởng": 1067,
      "hữ": 1068,
      "ảm": 1069,
      "chỗ": 1070,
      "hữu": 1071,
      "ha": 1072,
      "khủng": 1073,
      "thập": 1074,
      "ếp": 1075,
      "đức": 1076,
      "vẽ": 1077,
      "we": 1078,
      "xanh": 1079,
      "tấm": 1080,
      "ẵn": 1081,
      "tổng": 1082,
      "phúc": 1083,
      "chuẩn": 1084,
      "ỏng": 1085,
      "tệ": 1086,
      "thiếu": 1087,
      "lắng": 1088,
      "tức": 1089,
      "hoạ": 1090,
      "sẵn": 1091,
      "ẩy": 1092,
      "chịu": 1093,
      "ửi": 1094,
      "sắp": 1095,
      "de": 1096,
      "hề": 1097,
      "tái": 1098,
      "phạm": 1099,
      "gen": 1100,
      "niệm": 1101,
      "tây": 1102,
      "hơi": 1103,
      "đau": 1104,
      "ộn": 1105,
      "nhiêu": 1106,
      "chống": 1107,
      "trai": 1108,
      "khăn": 1109,
      "dựa": 1110,
      "úi": 1111,
      "mong": 1112,
      "may": 1113,
      "dung": 1114,
      "lạ": 1115,
      "lạc": 1116,
      "thất": 1117,
      "ón": 1118,
      "cải": 1119,
      "ran": 1120,
      "toà": 1121,
      "thi": 1122,
      "đóng": 1123,
      "bánh": 1124,
      "uôi": 1125,
      "lựa": 1126,
      "đội": 1127,
      "xử": 1128,
      "lan": 1129,
      "nội": 1130,
      "cổ": 1131,
      "ốt": 1132,
      "me": 1133,
      "trực": 1134,
      "hậu": 1135,
      "uyên": 1136,
      "gửi": 1137,
      "tầm": 1138,
      "tỷ": 1139,
      "vượt": 1140,
      "đột": 1141,
      "khổ": 1142,
      "nhu": 1143,
      "dần": 1144,
      "hạt": 1145,
      "mật": 1146,
      "new": 1147,
      "khắc": 1148,
      "dương": 1149,
      "xấu": 1150,
      "chăm": 1151,
      "vid": 1152,
      "danh": 1153,
      "100": 1154,
      "ưng": 1155,
      "ngoại": 1156,
      "niềm": 1157,
      "thiện": 1158,
      "hứng": 1159,
      "kính": 1160,
      "nhiệt": 1161,
      "xo": 1162,
      "dầu": 1163,
      "lưu": 1164,
      "ok": 1165,
      "chiều": 1166,
      "net": 1167,
      "tí": 1168,
      "lãnh": 1169,
      "ce": 1170,
      "trạng": 1171,
      "sang": 1172,
      "ốn": 1173,
      "ad": 1174,
      "ton": 1175,
      "tội": 1176,
      "nỗi": 1177,
      "ngược": 1178,
      "nạn": 1179,
      "ly": 1180,
      "nghèo": 1181,
      "dấu": 1182,
      "thủ": 1183,
      "đấu": 1184,
      "na": 1185,
      "nhiễ": 1186,
      "cận": 1187,
      "chữa": 1188,
      "ồm": 1189,
      "thách": 1190,
      "hát": 1191,
      "mar": 1192,
      "đẩy": 1193,
      "khách": 1194,
      "chữ": 1195,
      "wi": 1196,
      "du": 1197,
      "kéo": 1198,
      "ngủ": 1199,
      "đen": 1200,
      "quân": 1201,
      "rob": 1202,
      "tắc": 1203,
      "nhờ": 1204,
      "quản": 1205,
      "at": 1206,
      "ãi": 1207,
      "nuôi": 1208,
      "giấy": 1209,
      "nửa": 1210,
      "et": 1211,
      "bại": 1212,
      "tiện": 1213,
      "inter": 1214,
      "lí": 1215,
      "soát": 1216,
      "cử": 1217,
      "lĩnh": 1218,
      "tốc": 1219,
      "lỗi": 1220,
      "bắc": 1221,
      "khối": 1222,
      "mắc": 1223,
      "hoạch": 1224,
      "gồm": 1225,
      "mơ": 1226,
      "bốn": 1227,
      "đừng": 1228,
      "ỉnh": 1229,
      "dây": 1230,
      "ẩu": 1231,
      "nhiễm": 1232,
      "cắt": 1233,
      "sa": 1234,
      "đu": 1235,
      "tàu": 1236,
      "khiển": 1237,
      "sóc": 1238,
      "tả": 1239,
      "dòng": 1240,
      "gó": 1241,
      "mê": 1242,
      "giết": 1243,
      "jo": 1244,
      "õi": 1245,
      "đêm": 1246,
      "thẳng": 1247,
      "cười": 1248,
      "lin": 1249,
      "quen": 1250,
      "hại": 1251,
      "phong": 1252,
      "internet": 1253,
      "lưới": 1254,
      "can": 1255,
      "bày": 1256,
      "web": 1257,
      "bầu": 1258,
      "đích": 1259,
      "khán": 1260,
      "phóng": 1261,
      "chiếu": 1262,
      "cập": 1263,
      "xếp": 1264,
      "chúa": 1265,
      "hỗ": 1266,
      "lái": 1267,
      "thấp": 1268,
      "niên": 1269,
      "nhật": 1270,
      "nông": 1271,
      "pe": 1272,
      "điển": 1273,
      "khai": 1274,
      "cư": 1275,
      "giai": 1276,
      "ngắn": 1277,
      "ngờ": 1278,
      "gấp": 1279,
      "ru": 1280,
      "rối": 1281,
      "đổ": 1282,
      "15": 1283,
      "bí": 1284,
      "gốc": 1285,
      "sàng": 1286,
      "cam": 1287,
      "dàng": 1288,
      "chấp": 1289,
      "trừ": 1290,
      "ặn": 1291,
      "tận": 1292,
      "vai": 1293,
      "ngân": 1294,
      "sân": 1295,
      "đem": 1296,
      "giây": 1297,
      "đợi": 1298,
      "trách": 1299,
      "hồ": 1300,
      "chuyến": 1301,
      "93": 1302,
      "bạo": 1303,
      "đỡ": 1304,
      "cám": 1305,
      "kỉ": 1306,
      "tôn": 1307,
      "91": 1308,
      "lắm": 1309,
      "son": 1310,
      "12": 1311,
      "gắn": 1312,
      "siêu": 1313,
      "car": 1314,
      "cáo": 1315,
      "nghị": 1316,
      "cân": 1317,
      "phẫu": 1318,
      "ko": 1319,
      "hài": 1320,
      "xuyên": 1321,
      "cu": 1322,
      "chim": 1323,
      "be": 1324,
      "dừng": 1325,
      "nhảy": 1326,
      "ngàn": 1327,
      "se": 1328,
      "èn": 1329,
      "thơ": 1330,
      "ầng": 1331,
      "thụ": 1332,
      "màn": 1333,
      "man": 1334,
      "kĩ": 1335,
      "tầng": 1336,
      "lao": 1337,
      "40": 1338,
      "ổn": 1339,
      "video": 1340,
      "đỏ": 1341,
      "tai": 1342,
      "ký": 1343,
      "ber": 1344,
      "cháu": 1345,
      "đảm": 1346,
      "phổ": 1347,
      "for": 1348,
      "hấp": 1349,
      "tải": 1350,
      "rừng": 1351,
      "khái": 1352,
      "tù": 1353,
      "ork": 1354,
      "hà": 1355,
      "pa": 1356,
      "khởi": 1357,
      "ngăn": 1358,
      "chỉnh": 1359,
      "luy": 1360,
      "góc": 1361,
      "ke": 1362,
      "nhắc": 1363,
      "bang": 1364,
      "món": 1365,
      "mùa": 1366,
      "ót": 1367,
      "thải": 1368,
      "nghiêm": 1369,
      "iếp": 1370,
      "khuôn": 1371,
      "đám": 1372,
      "hộp": 1373,
      "hút": 1374,
      "kê": 1375,
      "ll": 1376,
      "ẳn": 1377,
      "mạch": 1378,
      "18": 1379,
      "dĩ": 1380,
      "mo": 1381,
      "mấy": 1382,
      "môn": 1383,
      "sh": 1384,
      "luyện": 1385,
      "chuột": 1386,
      "lá": 1387,
      "hẳn": 1388,
      "york": 1389,
      "coi": 1390,
      "tín": 1391,
      "già": 1392,
      "giàu": 1393,
      "robot": 1394,
      "liệt": 1395,
      "đảo": 1396,
      "ềm": 1397,
      "tuyến": 1398,
      "phận": 1399,
      "tấn": 1400,
      "thắng": 1401,
      "giọng": 1402,
      "ard": 1403,
      "trao": 1404,
      "pi": 1405,
      "huỷ": 1406,
      "dậy": 1407,
      "hạ": 1408,
      "nặng": 1409,
      "quyển": 1410,
      "vân": 1411,
      "quang": 1412,
      "chứa": 1413,
      "rút": 1414,
      "mềm": 1415,
      "chờ": 1416,
      "òi": 1417,
      "tri": 1418,
      "nóng": 1419,
      "phù": 1420,
      "po": 1421,
      "chủng": 1422,
      "kim": 1423,
      "sóng": 1424,
      "ọt": 1425,
      "buộc": 1426,
      "ga": 1427,
      "linh": 1428,
      "ge": 1429,
      "ste": 1430,
      "máu": 1431,
      "buồn": 1432,
      "chóng": 1433,
      "thảo": 1434,
      "mẽ": 1435,
      "xi": 1436,
      "ịp": 1437,
      "trùng": 1438,
      "dưỡng": 1439,
      "rời": 1440,
      "sơ": 1441,
      "vo": 1442,
      "điên": 1443,
      "thiệu": 1444,
      "hãi": 1445,
      "ấc": 1446,
      "60": 1447,
      "cũ": 1448,
      "tồi": 1449,
      "tảng": 1450,
      "đáp": 1451,
      "dõi": 1452,
      "lộ": 1453,
      "uống": 1454,
      "trắng": 1455,
      "miễn": 1456,
      "thưởng": 1457,
      "loạn": 1458,
      "bon": 1459,
      "sửa": 1460,
      "lầm": 1461,
      "vững": 1462,
      "im": 1463,
      "tường": 1464,
      "tránh": 1465,
      "cơn": 1466,
      "lạnh": 1467,
      "đào": 1468,
      "mắn": 1469,
      "quảng": 1470,
      "khổng": 1471,
      "80": 1472,
      "bảng": 1473,
      "đương": 1474,
      "chàng": 1475,
      "đói": 1476,
      "góp": 1477,
      "lồ": 1478,
      "khoản": 1479,
      "tiểu": 1480,
      "đèn": 1481,
      "mảnh": 1482,
      "núi": 1483,
      "tờ": 1484,
      "mái": 1485,
      "đỉnh": 1486,
      "tổn": 1487,
      "ve": 1488,
      "quỹ": 1489,
      "tộc": 1490,
      "lẫn": 1491,
      "diệu": 1492,
      "11": 1493,
      "trận": 1494,
      "bề": 1495,
      "ry": 1496,
      "ớm": 1497,
      "trồng": 1498,
      "phỏng": 1499,
      "quên": 1500,
      "dường": 1501,
      "tốn": 1502,
      "mãi": 1503,
      "hiển": 1504,
      "trì": 1505,
      "huy": 1506,
      "quần": 1507,
      "giỏi": 1508,
      "no": 1509,
      "cầm": 1510,
      "hảo": 1511,
      "mời": 1512,
      "san": 1513,
      "ron": 1514,
      "rơi": 1515,
      "áy": 1516,
      "chó": 1517,
      "vàng": 1518,
      "bật": 1519,
      "cỡ": 1520,
      "hôn": 1521,
      "vợ": 1522,
      "chạm": 1523,
      "lương": 1524,
      "les": 1525,
      "chấm": 1526,
      "phấn": 1527,
      "bền": 1528,
      "ja": 1529,
      "og": 1530,
      "tiềm": 1531,
      "va": 1532,
      "khuẩn": 1533,
      "pr": 1534,
      "25": 1535,
      "bữa": 1536,
      "vốn": 1537,
      "nghìn": 1538,
      "khoá": 1539,
      "kí": 1540,
      "sánh": 1541,
      "nghỉ": 1542,
      "chiếm": 1543,
      "nổ": 1544,
      "điệu": 1545,
      "ngừng": 1546,
      "ali": 1547,
      "ger": 1548,
      "xương": 1549,
      "thịt": 1550,
      "lửa": 1551,
      "nắm": 1552,
      "hoảng": 1553,
      "khích": 1554,
      "làng": 1555,
      "giấc": 1556,
      "ghế": 1557,
      "tô": 1558,
      "phối": 1559,
      "chuỗi": 1560,
      "biên": 1561,
      "hào": 1562,
      "vỡ": 1563,
      "chồng": 1564,
      "gió": 1565,
      "istan": 1566,
      "tách": 1567,
      "khẩu": 1568,
      "un": 1569,
      "vĩ": 1570,
      "đằng": 1571,
      "kịch": 1572,
      "khuy": 1573,
      "hổ": 1574,
      "sáu": 1575,
      "ặm": 1576,
      "ein": 1577,
      "sớm": 1578,
      "chảy": 1579,
      "sót": 1580,
      "loạt": 1581,
      "thoát": 1582,
      "mũ": 1583,
      "chậm": 1584,
      "70": 1585,
      "90": 1586,
      "sạch": 1587,
      "khứ": 1588,
      "goog": 1589,
      "tắt": 1590,
      "tàn": 1591,
      "chào": 1592,
      "ham": 1593,
      "mon": 1594,
      "yo": 1595,
      "ẹn": 1596,
      "nghề": 1597,
      "wo": 1598,
      "bọn": 1599,
      "lối": 1600,
      "sông": 1601,
      "google": 1602,
      "gợi": 1603,
      "bè": 1604,
      "lặp": 1605,
      "suất": 1606,
      "don": 1607,
      "ứt": 1608,
      "trại": 1609,
      "viễn": 1610,
      "gan": 1611,
      "gam": 1612,
      "ris": 1613,
      "ùa": 1614,
      "đế": 1615,
      "ãn": 1616,
      "phê": 1617,
      "ươi": 1618,
      "cà": 1619,
      "ka": 1620,
      "lỗ": 1621,
      "túi": 1622,
      "sỹ": 1623,
      "ngại": 1624,
      "trưng": 1625,
      "tán": 1626,
      "ựng": 1627,
      "nhé": 1628,
      "fe": 1629,
      "hn": 1630,
      "the": 1631,
      "thước": 1632,
      "trữ": 1633,
      "ine": 1634,
      "cú": 1635,
      "cờ": 1636,
      "il": 1637,
      "iếng": 1638,
      "ói": 1639,
      "kháng": 1640,
      "phiên": 1641,
      "nguyện": 1642,
      "dặm": 1643,
      "he": 1644,
      "kiệm": 1645,
      "đăng": 1646,
      "né": 1647,
      "khoảnh": 1648,
      "bụ": 1649,
      "bơi": 1650,
      "sốt": 1651,
      "tụ": 1652,
      "bờ": 1653,
      "nâng": 1654,
      "tàng": 1655,
      "nhắn": 1656,
      "vỏ": 1657,
      "ngài": 1658,
      "thảm": 1659,
      "thoả": 1660,
      "đuổi": 1661,
      "ken": 1662,
      "che": 1663,
      "ghép": 1664,
      "bra": 1665,
      "thăm": 1666,
      "kém": 1667,
      "rus": 1668,
      "ưỡi": 1669,
      "thở": 1670,
      "rẻ": 1671,
      "fa": 1672,
      "lặng": 1673,
      "nỗ": 1674,
      "vết": 1675,
      "hoang": 1676,
      "ìa": 1677,
      "dã": 1678,
      "nhẹ": 1679,
      "xoay": 1680,
      "voi": 1681,
      "hùng": 1682,
      "ghan": 1683,
      "lọc": 1684,
      "tròn": 1685,
      "điệp": 1686,
      "trống": 1687,
      "ver": 1688,
      "than": 1689,
      "mùi": 1690,
      "john": 1691,
      "giám": 1692,
      "bò": 1693,
      "lục": 1694,
      "van": 1695,
      "ngẫu": 1696,
      "hiệp": 1697,
      "lính": 1698,
      "đẳng": 1699,
      "hoàng": 1700,
      "lon": 1701,
      "đam": 1702,
      "thánh": 1703,
      "lành": 1704,
      "thuỷ": 1705,
      "ds": 1706,
      "af": 1707,
      "dan": 1708,
      "mai": 1709,
      "doạ": 1710,
      "thừa": 1711,
      "đoàn": 1712,
      "by": 1713,
      "thác": 1714,
      "trích": 1715,
      "thuận": 1716,
      "rác": 1717,
      "úa": 1718,
      "đựng": 1719,
      "ủi": 1720,
      "hiv": 1721,
      "cấy": 1722,
      "thang": 1723,
      "hắn": 1724,
      "lễ": 1725,
      "họp": 1726,
      "ox": 1727,
      "đạp": 1728,
      "ớt": 1729,
      "lãng": 1730,
      "miếng": 1731,
      "đe": 1732,
      "chặt": 1733,
      "thai": 1734,
      "nhuận": 1735,
      "lược": 1736,
      "mây": 1737,
      "mừng": 1738,
      "sc": 1739,
      "tật": 1740,
      "nhựa": 1741,
      "giảng": 1742,
      "lắp": 1743,
      "cục": 1744,
      "cãi": 1745,
      "der": 1746,
      "ườn": 1747,
      "nia": 1748,
      "khấu": 1749,
      "fi": 1750,
      "chặn": 1751,
      "tuyên": 1752,
      "hương": 1753,
      "mại": 1754,
      "yên": 1755,
      "ngoái": 1756,
      "sợi": 1757,
      "ngang": 1758,
      "thấu": 1759,
      "16": 1760,
      "bảy": 1761,
      "diệt": 1762,
      "rập": 1763,
      "đòi": 1764,
      "thận": 1765,
      "thầy": 1766,
      "ell": 1767,
      "nhịp": 1768,
      "cát": 1769,
      "pin": 1770,
      "huống": 1771,
      "dị": 1772,
      "mực": 1773,
      "đùa": 1774,
      "thao": 1775,
      "cản": 1776,
      "đống": 1777,
      "14": 1778,
      "cặp": 1779,
      "oh": 1780,
      "sổ": 1781,
      "chép": 1782,
      "one": 1783,
      "bom": 1784,
      "13": 1785,
      "har": 1786,
      "súng": 1787,
      "bắn": 1788,
      "nấm": 1789,
      "vong": 1790,
      "chán": 1791,
      "tràn": 1792,
      "cứng": 1793,
      "tỏ": 1794,
      "vú": 1795,
      "éo": 1796,
      "ngọn": 1797,
      "thù": 1798,
      "ama": 1799,
      "bối": 1800,
      "hiếm": 1801,
      "mập": 1802,
      "nhằm": 1803,
      "khung": 1804,
      "500": 1805,
      "gu": 1806,
      "prot": 1807,
      "gra": 1808,
      "móc": 1809,
      "eri": 1810,
      "den": 1811,
      "mét": 1812,
      "triết": 1813,
      "trào": 1814,
      "phiếu": 1815,
      "tiêm": 1816,
      "côn": 1817,
      "za": 1818,
      "khía": 1819,
      "sụp": 1820,
      "blo": 1821,
      "fran": 1822,
      "hè": 1823,
      "kêu": 1824,
      "đảng": 1825,
      "chris": 1826,
      "adn": 1827,
      "ju": 1828,
      "lũ": 1829,
      "ya": 1830,
      "hoả": 1831,
      "lừa": 1832,
      "mưa": 1833,
      "tá": 1834,
      "liền": 1835,
      "afghan": 1836,
      "dối": 1837,
      "gỗ": 1838,
      "ậc": 1839,
      "thuy": 1840,
      "khảo": 1841,
      "bur": 1842,
      "béo": 1843,
      "đua": 1844,
      "căng": 1845,
      "rượ": 1846,
      "bậc": 1847,
      "hối": 1848,
      "per": 1849,
      "thờ": 1850,
      "hải": 1851,
      "èm": 1852,
      "rượu": 1853,
      "par": 1854,
      "đập": 1855,
      "thuyền": 1856,
      "ah": 1857,
      "gã": 1858,
      "song": 1859,
      "mạc": 1860,
      "trầm": 1861,
      "thoải": 1862,
      "ed": 1863,
      "huấn": 1864,
      "mỏ": 1865,
      "ngưỡng": 1866,
      "chốt": 1867,
      "hỗn": 1868,
      "17": 1869,
      "bri": 1870,
      "men": 1871,
      "chối": 1872,
      "táo": 1873,
      "ven": 1874,
      "đài": 1875,
      "amp": 1876,
      "tia": 1877,
      "khuyến": 1878,
      "land": 1879,
      "nhũng": 1880,
      "ghét": 1881,
      "tỉnh": 1882,
      "mì": 1883,
      "ur": 1884,
      "iran": 1885,
      "nan": 1886,
      "rắc": 1887,
      "biện": 1888,
      "ren": 1889,
      "sta": 1890,
      "ts": 1891,
      "tro": 1892,
      "cong": 1893,
      "ngón": 1894,
      "cháy": 1895,
      "bổ": 1896,
      "ĩa": 1897,
      "ớp": 1898,
      "thuỵ": 1899,
      "nút": 1900,
      "đốc": 1901,
      "ci": 1902,
      "cỏ": 1903,
      "mạo": 1904,
      "đắt": 1905,
      "ford": 1906,
      "mũi": 1907,
      "bia": 1908,
      "geo": 1909,
      "ps": 1910,
      "phán": 1911,
      "hồn": 1912,
      "tv": 1913,
      "thả": 1914,
      "thọ": 1915,
      "trứng": 1916,
      "protein": 1917,
      "afghanistan": 1918,
      "bông": 1919,
      "săn": 1920,
      "xứng": 1921,
      "char": 1922,
      "all": 1923,
      "ore": 1924,
      "bar": 1925,
      "bro": 1926,
      "cỗ": 1927,
      "hiến": 1928,
      "leo": 1929,
      "túc": 1930,
      "xong": 1931,
      "thiểu": 1932,
      "david": 1933,
      "gọn": 1934,
      "rủi": 1935,
      "thạch": 1936,
      "xoá": 1937,
      "bãi": 1938,
      "ff": 1939,
      "ợt": 1940,
      "khát": 1941,
      "cụt": 1942,
      "dinh": 1943,
      "nấu": 1944,
      "str": 1945,
      "giận": 1946,
      "tạm": 1947,
      "vườn": 1948,
      "nha": 1949,
      "ale": 1950,
      "cột": 1951,
      "miền": 1952,
      "tóm": 1953,
      "khiếp": 1954,
      "truyện": 1955,
      "21": 1956,
      "dày": 1957,
      "mộ": 1958,
      "nơ": 1959,
      "thổ": 1960,
      "thiệp": 1961,
      "pha": 1962,
      "thuê": 1963,
      "bột": 1964,
      "binh": 1965,
      "dọc": 1966,
      "era": 1967,
      "kẹ": 1968,
      "đắn": 1969,
      "ớn": 1970,
      "ngũ": 1971,
      "nho": 1972,
      "chừng": 1973,
      "mát": 1974,
      "ley": 1975,
      "dàn": 1976,
      "hước": 1977,
      "lộn": 1978,
      "mò": 1979,
      "chẩn": 1980,
      "phó": 1981,
      "giành": 1982,
      "bạc": 1983,
      "răng": 1984,
      "tóc": 1985,
      "đốt": 1986,
      "huyết": 1987,
      "mĩ": 1988,
      "xưa": 1989,
      "ướt": 1990,
      "cốt": 1991,
      "rô": 1992,
      "ỗng": 1993,
      "nhấn": 1994,
      "thuần": 1995,
      "tuỳ": 1996,
      "cẩn": 1997,
      "đà": 1998,
      "chai": 1999,
      "iệng": 2000,
      "bó": 2001,
      "rưỡi": 2002,
      "ùi": 2003,
      "quê": 2004,
      "24": 2005,
      "rào": 2006,
      "sli": 2007,
      "đĩa": 2008,
      "thưa": 2009,
      "rael": 2010,
      "book": 2011,
      "face": 2012,
      "gương": 2013,
      "lli": 2014,
      "tặng": 2015,
      "xâm": 2016,
      "ýt": 2017,
      "199": 2018,
      "israel": 2019,
      "dy": 2020,
      "nhỉ": 2021,
      "ném": 2022,
      "han": 2023,
      "thẩm": 2024,
      "trộn": 2025,
      "dio": 2026,
      "khóc": 2027,
      "hẹn": 2028,
      "je": 2029,
      "ld": 2030,
      "miệng": 2031,
      "xạ": 2032,
      "phổi": 2033,
      "blog": 2034,
      "lẻ": 2035,
      "mẩu": 2036,
      "sy": 2037,
      "mas": 2038,
      "cali": 2039,
      "gà": 2040,
      "tám": 2041,
      "game": 2042,
      "dính": 2043,
      "lão": 2044,
      "thượng": 2045,
      "đón": 2046,
      "tuệ": 2047,
      "facebook": 2048,
      "cốc": 2049,
      "hằng": 2050,
      "ten": 2051,
      "đớn": 2052,
      "miêu": 2053,
      "bạch": 2054,
      "trăng": 2055,
      "trạm": 2056,
      "lỏng": 2057,
      "ail": 2058,
      "lang": 2059,
      "ria": 2060,
      "đậu": 2061,
      "ngầm": 2062,
      "300": 2063,
      "cường": 2064,
      "hạng": 2065,
      "manh": 2066,
      "tò": 2067,
      "ngựa": 2068,
      "nhạy": 2069,
      "quái": 2070,
      "tuyết": 2071,
      "đáy": 2072,
      "ốm": 2073,
      "ess": 2074,
      "vuông": 2075,
      "kiên": 2076,
      "nga": 2077,
      "thợ": 2078,
      "quán": 2079,
      "thoảng": 2080,
      "ben": 2081,
      "ira": 2082,
      "jam": 2083,
      "trôi": 2084,
      "hứa": 2085,
      "lâm": 2086,
      "nét": 2087,
      "ol": 2088,
      "rồ": 2089,
      "trắc": 2090,
      "quí": 2091,
      "giày": 2092,
      "hoại": 2093,
      "bốt": 2094,
      "fornia": 2095,
      "ada": 2096,
      "chấn": 2097,
      "khô": 2098,
      "quét": 2099,
      "wit": 2100,
      "stein": 2101,
      "california": 2102,
      "dna": 2103,
      "nướng": 2104,
      "ze": 2105,
      "ẻo": 2106,
      "ngã": 2107,
      "las": 2108,
      "mic": 2109,
      "mèo": 2110,
      "giường": 2111,
      "cự": 2112,
      "lây": 2113,
      "ãng": 2114,
      "thỉnh": 2115,
      "tiếc": 2116,
      "tes": 2117,
      "vắc": 2118,
      "tha": 2119,
      "tal": 2120,
      "kèm": 2121,
      "lưng": 2122,
      "đeo": 2123,
      "chăng": 2124,
      "trần": 2125,
      "tĩnh": 2126,
      "mẻ": 2127,
      "mal": 2128,
      "ẫm": 2129,
      "mãn": 2130,
      "đếm": 2131,
      "dán": 2132,
      "ler": 2133,
      "ninh": 2134,
      "pal": 2135,
      "cụm": 2136,
      "bụng": 2137,
      "wa": 2138,
      "war": 2139,
      "xico": 2140,
      "oxy": 2141,
      "vinh": 2142,
      "thói": 2143,
      "gói": 2144,
      "dò": 2145,
      "dar": 2146,
      "hô": 2147,
      "hỏng": 2148,
      "lăn": 2149,
      "pau": 2150,
      "zil": 2151,
      "ẫy": 2152,
      "quà": 2153,
      "2000": 2154,
      "tân": 2155,
      "ụt": 2156,
      "ngon": 2157,
      "giơ": 2158,
      "giấu": 2159,
      "canada": 2160,
      "cc": 2161,
      "hư": 2162,
      "lệnh": 2163,
      "tiệc": 2164,
      "khuyên": 2165,
      "email": 2166,
      "mexico": 2167,
      "cy": 2168,
      "gỡ": 2169,
      "hang": 2170,
      "lôi": 2171,
      "ùm": 2172,
      "virus": 2173,
      "kênh": 2174,
      "ky": 2175,
      "lặn": 2176,
      "mờ": 2177,
      "st": 2178,
      "tung": 2179,
      "tháp": 2180,
      "aids": 2181,
      "bão": 2182,
      "dp": 2183,
      "dứt": 2184,
      "heo": 2185,
      "lề": 2186,
      "long": 2187,
      "tị": 2188,
      "win": 2189,
      "chìm": 2190,
      "trốn": 2191,
      "khao": 2192,
      "phiền": 2193,
      "khoan": 2194,
      "com": 2195,
      "cất": 2196,
      "dao": 2197,
      "hàn": 2198,
      "ngọt": 2199,
      "lãm": 2200,
      "hàm": 2201,
      "you": 2202,
      "dư": 2203,
      "dược": 2204,
      "gõ": 2205,
      "ngton": 2206,
      "gián": 2207,
      "thuế": 2208,
      "tion": 2209,
      "buôn": 2210,
      "mit": 2211,
      "198": 2212,
      "brazil": 2213,
      "gre": 2214,
      "đực": 2215,
      "bill": 2216,
      "geor": 2217,
      "mệnh": 2218,
      "thăng": 2219,
      "est": 2220,
      "hố": 2221,
      "sàn": 2222,
      "sữa": 2223,
      "trục": 2224,
      "camera": 2225,
      "kenya": 2226,
      "bùng": 2227,
      "dáng": 2228,
      "ợn": 2229,
      "thổi": 2230,
      "trưa": 2231,
      "cúm": 2232,
      "400": 2233,
      "bếp": 2234,
      "cấm": 2235,
      "ic": 2236,
      "rét": 2237,
      "khỉ": 2238,
      "làn": 2239,
      "bụi": 2240,
      "london": 2241,
      "bận": 2242,
      "it": 2243,
      "kin": 2244,
      "lly": 2245,
      "lõi": 2246,
      "sơn": 2247,
      "tươi": 2248,
      "xí": 2249,
      "xinh": 2250,
      "muỗi": 2251,
      "3d": 2252,
      "liều": 2253,
      "tông": 2254,
      "geria": 2255,
      "lf": 2256,
      "say": 2257,
      "tắm": 2258,
      "ếch": 2259,
      "ngắm": 2260,
      "thẻ": 2261,
      "ượn": 2262,
      "vua": 2263,
      "ander": 2264,
      "nảy": 2265,
      "quát": 2266,
      "nàng": 2267,
      "75": 2268,
      "bong": 2269,
      "cưới": 2270,
      "ey": 2271,
      "lường": 2272,
      "min": 2273,
      "op": 2274,
      "sưu": 2275,
      "tướng": 2276,
      "ộm": 2277,
      "chìa": 2278,
      "trượt": 2279,
      "phì": 2280,
      "phú": 2281,
      "rau": 2282,
      "tuý": 2283,
      "45": 2284,
      "lông": 2285,
      "lướt": 2286,
      "nốt": 2287,
      "sha": 2288,
      "tủ": 2289,
      "thịnh": 2290,
      "iraq": 2291,
      "nhắm": 2292,
      "thính": 2293,
      "thiệt": 2294,
      "thám": 2295,
      "khôn": 2296,
      "thua": 2297,
      "150": 2298,
      "fo": 2299,
      "gấu": 2300,
      "pu": 2301,
      "rãi": 2302,
      "um": 2303,
      "ngập": 2304,
      "thùng": 2305,
      "eli": 2306,
      "dãy": 2307,
      "hồng": 2308,
      "nở": 2309,
      "nhẫn": 2310,
      "quãng": 2311,
      "giam": 2312,
      "phái": 2313,
      "toả": 2314,
      "dia": 2315,
      "witter": 2316,
      "bos": 2317,
      "len": 2318,
      "mer": 2319,
      "sung": 2320,
      "twitter": 2321,
      "was": 2322,
      "ngốc": 2323,
      "khớp": 2324,
      "kín": 2325,
      "feet": 2326,
      "bel": 2327,
      "dám": 2328,
      "fre": 2329,
      "châm": 2330,
      "how": 2331,
      "bơ": 2332,
      "cừ": 2333,
      "gdp": 2334,
      "mười": 2335,
      "ny": 2336,
      "pro": 2337,
      "xóm": 2338,
      "chúc": 2339,
      "co2": 2340,
      "cuộn": 2341,
      "cưỡng": 2342,
      "dắt": 2343,
      "ss": 2344,
      "trà": 2345,
      "phạt": 2346,
      "qui": 2347,
      "rich": 2348,
      "cac": 2349,
      "cậy": 2350,
      "gg": 2351,
      "lau": 2352,
      "mc": 2353,
      "nắng": 2354,
      "stan": 2355,
      "vỗ": 2356,
      "wan": 2357,
      "wal": 2358,
      "nhiếp": 2359,
      "nhãn": 2360,
      "que": 2361,
      "ray": 2362,
      "ướp": 2363,
      "tuyển": 2364,
      "hầm": 2365,
      "lát": 2366,
      "mạn": 2367,
      "nô": 2368,
      "chà": 2369,
      "tháo": 2370,
      "ranh": 2371,
      "los": 2372,
      "bê": 2373,
      "vây": 2374,
      "đuôi": 2375,
      "khơi": 2376,
      "điêu": 2377,
      "hệt": 2378,
      "lip": 2379,
      "carbon": 2380,
      "micro": 2381,
      "george": 2382,
      "cen": 2383,
      "cis": 2384,
      "nọ": 2385,
      "vở": 2386,
      "hòn": 2387,
      "lò": 2388,
      "wor": 2389,
      "đồi": 2390,
      "đâm": 2391,
      "chước": 2392,
      "gene": 2393,
      "woo": 2394,
      "bớt": 2395,
      "non": 2396,
      "nhở": 2397,
      "thô": 2398,
      "phone": 2399,
      "nghịch": 2400,
      "thuẫn": 2401,
      "king": 2402,
      "einstein": 2403,
      "bút": 2404,
      "cởi": 2405,
      "ek": 2406,
      "gánh": 2407,
      "hung": 2408,
      "lùi": 2409,
      "mệt": 2410,
      "wn": 2411,
      "chở": 2412,
      "hãng": 2413,
      "ala": 2414,
      "muộn": 2415,
      "slide": 2416,
      "mấu": 2417,
      "nor": 2418,
      "ple": 2419,
      "sứ": 2420,
      "tt": 2421,
      "ngực": 2422,
      "chục": 2423,
      "chín": 2424,
      "washi": 2425,
      "bọ": 2426,
      "hen": 2427,
      "jon": 2428,
      "lạm": 2429,
      "nợ": 2430,
      "ther": 2431,
      "khúc": 2432,
      "vịnh": 2433,
      "wiki": 2434,
      "mm": 2435,
      "múa": 2436,
      "thôn": 2437,
      "phẳng": 2438,
      "paul": 2439,
      "đới": 2440,
      "ươn": 2441,
      "thâm": 2442,
      "trấn": 2443,
      "nghiện": 2444,
      "sốc": 2445,
      "cker": 2446,
      "line": 2447,
      "washington": 2448,
      "cin": 2449,
      "kịp": 2450,
      "rung": 2451,
      "ster": 2452,
      "vải": 2453,
      "khôi": 2454,
      "site": 2455,
      "ker": 2456,
      "lưỡng": 2457,
      "mỏi": 2458,
      "rễ": 2459,
      "zz": 2460,
      "ngoan": 2461,
      "duyệt": 2462,
      "cacbon": 2463,
      "cối": 2464,
      "mâu": 2465,
      "ráp": 2466,
      "nhặt": 2467,
      "trân": 2468,
      "khiếm": 2469,
      "2008": 2470,
      "website": 2471,
      "charles": 2472,
      "gar": 2473,
      "hưu": 2474,
      "ji": 2475,
      "top": 2476,
      "col": 2477,
      "nigeria": 2478,
      "bin": 2479,
      "del": 2480,
      "kistan": 2481,
      "vin": 2482,
      "zon": 2483,
      "khẳng": 2484,
      "pho": 2485,
      "ans": 2486,
      "ert": 2487,
      "hara": 2488,
      "cuồng": 2489,
      "dải": 2490,
      "lật": 2491,
      "mảng": 2492,
      "tần": 2493,
      "đố": 2494,
      "mày": 2495,
      "tor": 2496,
      "địch": 2497,
      "khói": 2498,
      "tedx": 2499,
      "1000": 2500,
      "35": 2501,
      "99": 2502,
      "hẹp": 2503,
      "py": 2504,
      "rắn": 2505,
      "sắt": 2506,
      "vươn": 2507,
      "ộp": 2508,
      "khuyết": 2509,
      "phím": 2510,
      "stress": 2511,
      "cựu": 2512,
      "talk": 2513,
      "bal": 2514,
      "dro": 2515,
      "gối": 2516,
      "gal": 2517,
      "jos": 2518,
      "rửa": 2519,
      "đẻ": 2520,
      "thằng": 2521,
      "treo": 2522,
      "màng": 2523,
      "micha": 2524,
      "adam": 2525,
      "cướp": 2526,
      "dạo": 2527,
      "des": 2528,
      "ela": 2529,
      "jer": 2530,
      "ner": 2531,
      "pm": 2532,
      "wat": 2533,
      "đáo": 2534,
      "francis": 2535,
      "đàm": 2536,
      "km": 2537,
      "lar": 2538,
      "nes": 2539,
      "vương": 2540,
      "vard": 2541,
      "khoái": 2542,
      "vil": 2543,
      "đoan": 2544,
      "pakistan": 2545,
      "cừu": 2546,
      "cạn": 2547,
      "dâm": 2548,
      "dẻo": 2549,
      "fer": 2550,
      "lợn": 2551,
      "mồi": 2552,
      "shi": 2553,
      "vé": 2554,
      "òm": 2555,
      "ằn": 2556,
      "ina": 2557,
      "thomas": 2558,
      "2010": 2559,
      "ft": 2560,
      "nas": 2561,
      "sạn": 2562,
      "sam": 2563,
      "tube": 2564,
      "lệch": 2565,
      "khuynh": 2566,
      "youtube": 2567,
      "michael": 2568,
      "cra": 2569,
      "cắm": 2570,
      "dọn": 2571,
      "lận": 2572,
      "vẹn": 2573,
      "đạn": 2574,
      "chả": 2575,
      "tựa": 2576,
      "huyền": 2577,
      "bơm": 2578,
      "bấy": 2579,
      "bắp": 2580,
      "bỗng": 2581,
      "đạc": 2582,
      "khiêu": 2583,
      "quyên": 2584,
      "kẹo": 2585,
      "richard": 2586,
      "23": 2587,
      "cắp": 2588,
      "eu": 2589,
      "lờ": 2590,
      "lũng": 2591,
      "my": 2592,
      "vĩnh": 2593,
      "tre": 2594,
      "đền": 2595,
      "tuân": 2596,
      "haiti": 2597,
      "run": 2598,
      "alex": 2599,
      "65": 2600,
      "ac": 2601,
      "bọc": 2602,
      "cương": 2603,
      "ec": 2604,
      "gps": 2605,
      "kiệt": 2606,
      "lay": 2607,
      "lấp": 2608,
      "én": 2609,
      "nhàng": 2610,
      "thung": 2611,
      "buýt": 2612,
      "cor": 2613,
      "lie": 2614,
      "mark": 2615,
      "kẹt": 2616,
      "bách": 2617,
      "bama": 2618,
      "lạp": 2619,
      "mòn": 2620,
      "nề": 2621,
      "xám": 2622,
      "đai": 2623,
      "nhầm": 2624,
      "giãn": 2625,
      "tom": 2626,
      "ght": 2627,
      "scot": 2628,
      "iphone": 2629,
      "kar": 2630,
      "lam": 2631,
      "mồ": 2632,
      "nêu": 2633,
      "vang": 2634,
      "xô": 2635,
      "đỗ": 2636,
      "thắc": 2637,
      "thép": 2638,
      "cap": 2639,
      "mỉ": 2640,
      "rẽ": 2641,
      "vay": 2642,
      "ễu": 2643,
      "chăn": 2644,
      "trú": 2645,
      "tran": 2646,
      "ana": 2647,
      "low": 2648,
      "robert": 2649,
      "600": 2650,
      "ak": 2651,
      "bá": 2652,
      "dở": 2653,
      "lơ": 2654,
      "mọc": 2655,
      "mỏng": 2656,
      "vượng": 2657,
      "ngừa": 2658,
      "trật": 2659,
      "ram": 2660,
      "---": 2661,
      "dũng": 2662,
      "dốc": 2663,
      "lượt": 2664,
      "nát": 2665,
      "of": 2666,
      "smi": 2667,
      "đợt": 2668,
      "khan": 2669,
      "khéo": 2670,
      "james": 2671,
      "cai": 2672,
      "hôi": 2673,
      "sôi": 2674,
      "ser": 2675,
      "stu": 2676,
      "võ": 2677,
      "phác": 2678,
      "radio": 2679,
      "2007": 2680,
      "bù": 2681,
      "bồ": 2682,
      "hạch": 2683,
      "lắc": 2684,
      "tz": 2685,
      "việt": 2686,
      "xôi": 2687,
      "ờng": 2688,
      "chợ": 2689,
      "gic": 2690,
      "angel": 2691,
      "hoài": 2692,
      "thoái": 2693,
      "ney": 2694,
      "hacker": 2695,
      "trừu": 2696,
      "nén": 2697,
      "bìa": 2698,
      "dge": 2699,
      "kg": 2700,
      "nản": 2701,
      "xăng": 2702,
      "ye": 2703,
      "pher": 2704,
      "tas": 2705,
      "dội": 2706,
      "ụng": 2707,
      "thầm": 2708,
      "tiễn": 2709,
      "cola": 2710,
      "nano": 2711,
      "bla": 2712,
      "cal": 2713,
      "gác": 2714,
      "ku": 2715,
      "muối": 2716,
      "nụ": 2717,
      "pt": 2718,
      "pen": 2719,
      "đẽ": 2720,
      "đan": 2721,
      "ẳm": 2722,
      "nghiệt": 2723,
      "chua": 2724,
      "peter": 2725,
      "xíu": 2726,
      "wikipe": 2727,
      "bby": 2728,
      "her": 2729,
      "hụt": 2730,
      "lúa": 2731,
      "obama": 2732,
      "sô": 2733,
      "ván": 2734,
      "xích": 2735,
      "trộm": 2736,
      "rock": 2737,
      "cổng": 2738,
      "ruồi": 2739,
      "paris": 2740,
      "nasa": 2741,
      "mộng": 2742,
      "mượn": 2743,
      "val": 2744,
      "xưởng": 2745,
      "xướng": 2746,
      "nhện": 2747,
      "thẳm": 2748,
      "big": 2749,
      "steve": 2750,
      "wikipedia": 2751,
      "22": 2752,
      "cống": 2753,
      "hóc": 2754,
      "ig": 2755,
      "mươi": 2756,
      "pan": 2757,
      "súc": 2758,
      "uỷ": 2759,
      "giặt": 2760,
      "tar": 2761,
      "khoáng": 2762,
      "quyến": 2763,
      "lap": 2764,
      "soạn": 2765,
      "vụn": 2766,
      "197": 2767,
      "martin": 2768,
      "berg": 2769,
      "frank": 2770,
      "smith": 2771,
      "bướ": 2772,
      "ble": 2773,
      "gũ": 2774,
      "jan": 2775,
      "rũ": 2776,
      "tê": 2777,
      "đệ": 2778,
      "chợt": 2779,
      "triều": 2780,
      "tam": 2781,
      "tím": 2782,
      "gũi": 2783,
      "bẩn": 2784,
      "dai": 2785,
      "hét": 2786,
      "ii": 2787,
      "ing": 2788,
      "lân": 2789,
      "lồng": 2790,
      "nồng": 2791,
      "tạng": 2792,
      "ngẫm": 2793,
      "nhĩ": 2794,
      "chẽ": 2795,
      "tráng": 2796,
      "giáng": 2797,
      "nhường": 2798,
      "độn": 2799,
      "inch": 2800,
      "sing": 2801,
      "2009": 2802,
      "lyn": 2803,
      "harvard": 2804,
      "star": 2805,
      "bai": 2806,
      "bám": 2807,
      "cược": 2808,
      "dỗ": 2809,
      "ip": 2810,
      "sen": 2811,
      "nhạt": 2812,
      "chôn": 2813,
      "trán": 2814,
      "quặc": 2815,
      "nhào": 2816,
      "ting": 2817,
      "xuân": 2818,
      "rio": 2819,
      "sili": 2820,
      "derek": 2821,
      "darwin": 2822,
      "green": 2823,
      "27": 2824,
      "ag": 2825,
      "bấm": 2826,
      "hò": 2827,
      "hiếp": 2828,
      "ian": 2829,
      "lánh": 2830,
      "mến": 2831,
      "rỗng": 2832,
      "xỉ": 2833,
      "gìn": 2834,
      "logic": 2835,
      "tivi": 2836,
      "eland": 2837,
      "nobel": 2838,
      "oxyto": 2839,
      "lều": 2840,
      "wood": 2841,
      "francisco": 2842,
      "angeles": 2843,
      "26": 2844,
      "cài": 2845,
      "iel": 2846,
      "ms": 2847,
      "pas": 2848,
      "res": 2849,
      "sáo": 2850,
      "sét": 2851,
      "sắm": 2852,
      "quạ": 2853,
      "giọt": 2854,
      "luân": 2855,
      "are": 2856,
      "kìa": 2857,
      "mãnh": 2858,
      "ruột": 2859,
      "oxytocin": 2860,
      "lùng": 2861,
      "mổ": 2862,
      "sal": 2863,
      "vứt": 2864,
      "whi": 2865,
      "cher": 2866,
      "thấm": 2867,
      "phun": 2868,
      "ano": 2869,
      "luỹ": 2870,
      "mad": 2871,
      "imer": 2872,
      "yeah": 2873,
      "din": 2874,
      "flo": 2875,
      "lê": 2876,
      "lỡ": 2877,
      "mri": 2878,
      "pos": 2879,
      "sky": 2880,
      "vạch": 2881,
      "zhe": 2882,
      "triệt": 2883,
      "quỷ": 2884,
      "lee": 2885,
      "2005": 2886,
      "okay": 2887,
      "sahara": 2888,
      "und": 2889,
      "eric": 2890,
      "95": 2891,
      "bồi": 2892,
      "bóc": 2893,
      "cọ": 2894,
      "fu": 2895,
      "lăng": 2896,
      "por": 2897,
      "rã": 2898,
      "vờ": 2899,
      "well": 2900,
      "xăm": 2901,
      "ín": 2902,
      "chọc": 2903,
      "emen": 2904,
      "lui": 2905,
      "hãm": 2906,
      "chuông": 2907,
      "red": 2908,
      "willi": 2909,
      "attan": 2910,
      "huynh": 2911,
      "amazon": 2912,
      "zheimer": 2913,
      "250": 2914,
      "gat": 2915,
      "lưỡi": 2916,
      "léo": 2917,
      "móng": 2918,
      "ori": 2919,
      "vòi": 2920,
      "xà": 2921,
      "đc": 2922,
      "chằm": 2923,
      "chớp": 2924,
      "rah": 2925,
      "hop": 2926,
      "tựu": 2927,
      "tuỷ": 2928,
      "ript": 2929,
      "hydro": 2930,
      "manhattan": 2931,
      "laptop": 2932,
      "kel": 2933,
      "lô": 2934,
      "olin": 2935,
      "via": 2936,
      "ngươi": 2937,
      "khiêm": 2938,
      "alzheimer": 2939,
      "let": 2940,
      "sey": 2941,
      "võng": 2942,
      "silicon": 2943,
      "bốc": 2944,
      "dam": 2945,
      "kem": 2946,
      "mỳ": 2947,
      "nếp": 2948,
      "qa": 2949,
      "rwan": 2950,
      "sch": 2951,
      "luồng": 2952,
      "chica": 2953,
      "joe": 2954,
      "boston": 2955,
      "chicago": 2956,
      "cs": 2957,
      "edi": 2958,
      "gạch": 2959,
      "mel": 2960,
      "nis": 2961,
      "pri": 2962,
      "ud": 2963,
      "ves": 2964,
      "ngẩn": 2965,
      "nhóc": 2966,
      "thắt": 2967,
      "đóm": 2968,
      "tine": 2969,
      "tit": 2970,
      "đoạt": 2971,
      "higg": 2972,
      "1990": 2973,
      "haw": 2974,
      "nhiễu": 2975,
      "vacc": 2976,
      "studio": 2977,
      "rwanda": 2978,
      "28": 2979,
      "29": 2980,
      "33": 2981,
      "bể": 2982,
      "dịp": 2983,
      "gậy": 2984,
      "tơ": 2985,
      "ênh": 2986,
      "ngớ": 2987,
      "ngưng": 2988,
      "phô": 2989,
      "cảng": 2990,
      "hoành": 2991,
      "tuỵ": 2992,
      "ghê": 2993,
      "đôla": 2994,
      "kiêng": 2995,
      "bầy": 2996,
      "gay": 2997,
      "gai": 2998,
      "hít": 2999,
      "mộc": 3000,
      "sọ": 3001,
      "vả": 3002,
      "wis": 3003,
      "xy": 3004,
      "đúc": 3005,
      "đuối": 3006,
      "khoăn": 3007,
      "amy": 3008,
      "coca": 3009,
      "sub": 3010,
      "cel": 3011,
      "hận": 3012,
      "mỡ": 3013,
      "mor": 3014,
      "nel": 3015,
      "rỉ": 3016,
      "sin": 3017,
      "súp": 3018,
      "show": 3019,
      "tem": 3020,
      "xé": 3021,
      "đậm": 3022,
      "ửng": 3023,
      "tron": 3024,
      "trúng": 3025,
      "phật": 3026,
      "tali": 3027,
      "hoan": 3028,
      "hoãn": 3029,
      "sou": 3030,
      "ling": 3031,
      "apple": 3032,
      "mat": 3033,
      "mara": 3034,
      "golf": 3035,
      "2006": 3036,
      "times": 3037,
      "gabby": 3038,
      "jack": 3039,
      "cent": 3040,
      "william": 3041,
      "gates": 3042,
      "bm": 3043,
      "băn": 3044,
      "ct": 3045,
      "canh": 3046,
      "ie": 3047,
      "mpi": 3048,
      "sw": 3049,
      "sti": 3050,
      "tiệm": 3051,
      "uni": 3052,
      "ât": 3053,
      "điền": 3054,
      "ẽn": 3055,
      "ngột": 3056,
      "nhủ": 3057,
      "nhánh": 3058,
      "nàn": 3059,
      "vic": 3060,
      "....": 3061,
      "2011": 3062,
      "gom": 3063,
      "nick": 3064,
      "bert": 3065,
      "jazz": 3066,
      "hổng": 3067,
      "script": 3068,
      "transcript": 3069,
      "titles": 3070,
      "subtitles": 3071,
      "hưng": 3072,
      "jen": 3073,
      "jim": 3074,
      "vội": 3075,
      "phe": 3076,
      "giật": 3077,
      "iếc": 3078,
      "nghẽn": 3079,
      "chuyền": 3080,
      "giáp": 3081,
      "tic": 3082,
      "lick": 3083,
      "phốt": 3084,
      "195": 3085,
      "196": 3086,
      "wow": 3087,
      "gami": 3088,
      "gãy": 3089,
      "bridge": 3090,
      "bẩm": 3091,
      "dại": 3092,
      "dệt": 3093,
      "lia": 3094,
      "oli": 3095,
      "rạp": 3096,
      "rốt": 3097,
      "tôm": 3098,
      "twe": 3099,
      "vất": 3100,
      "xứ": 3101,
      "zza": 3102,
      "đốm": 3103,
      "ngư": 3104,
      "ngụ": 3105,
      "gien": 3106,
      "espe": 3107,
      "rew": 3108,
      "2004": 3109,
      "xoắn": 3110,
      "koran": 3111,
      "pales": 3112,
      "48": 3113,
      "bẻ": 3114,
      "mầm": 3115,
      "sand": 3116,
      "vạn": 3117,
      "vòm": 3118,
      "chày": 3119,
      "ino": 3120,
      "khoai": 3121,
      "phiêu": 3122,
      "led": 3123,
      "thiêng": 3124,
      "met": 3125,
      "tony": 3126,
      "origami": 3127,
      "ep": 3128,
      "gas": 3129,
      "hông": 3130,
      "jor": 3131,
      "lột": 3132,
      "sướng": 3133,
      "tùng": 3134,
      "tịch": 3135,
      "vặt": 3136,
      "xách": 3137,
      "đụng": 3138,
      "nhị": 3139,
      "nhấp": 3140,
      "thal": 3141,
      "cáp": 3142,
      "nón": 3143,
      "online": 3144,
      "đom": 3145,
      "bush": 3146,
      "1960": 3147,
      "1970": 3148,
      "2003": 3149,
      "piano": 3150,
      "lester": 3151,
      "32": 3152,
      "85": 3153,
      "clip": 3154,
      "dập": 3155,
      "mand": 3156,
      "mbia": 3157,
      "rộn": 3158,
      "rìa": 3159,
      "tot": 3160,
      "ward": 3161,
      "zan": 3162,
      "thon": 3163,
      "then": 3164,
      "khen": 3165,
      "phiến": 3166,
      "hoo": 3167,
      "bab": 3168,
      "ghé": 3169,
      "neu": 3170,
      "llar": 3171,
      "she": 3172,
      "pop": 3173,
      "stre": 3174,
      "howard": 3175,
      "euro": 3176,
      "vaccine": 3177,
      "120": 3178,
      "biếm": 3179,
      "gạt": 3180,
      "hái": 3181,
      "ir": 3182,
      "kề": 3183,
      "kệ": 3184,
      "lọ": 3185,
      "mốc": 3186,
      "oxi": 3187,
      "pam": 3188,
      "sườn": 3189,
      "wer": 3190,
      "yemen": 3191,
      "zu": 3192,
      "chướng": 3193,
      "thắn": 3194,
      "thiền": 3195,
      "thốt": 3196,
      "khùng": 3197,
      "khẩn": 3198,
      "dis": 3199,
      "vịt": 3200,
      "soft": 3201,
      "tel": 3202,
      "lego": 3203,
      "pizza": 3204,
      "world": 3205,
      "henry": 3206,
      "700": 3207,
      "800": 3208,
      "bot": 3209,
      "bực": 3210,
      "búa": 3211,
      "dồn": 3212,
      "kẽ": 3213,
      "kẹp": 3214,
      "mp": 3215,
      "mt": 3216,
      "tăm": 3217,
      "xen": 3218,
      "đinh": 3219,
      "chóc": 3220,
      "phen": 3221,
      "củng": 3222,
      "tao": 3223,
      "oto": 3224,
      "hor": 3225,
      "nhàm": 3226,
      "sửng": 3227,
      "tur": 3228,
      "art": 3229,
      "ald": 3230,
      "thoáng": 3231,
      "chip": 3232,
      "chíp": 3233,
      "hun": 3234,
      "brian": 3235,
      "congo": 3236,
      "hans": 3237,
      "tasman": 3238,
      "đệm": 3239,
      "3000": 3240,
      "abra": 3241,
      "far": 3242,
      "gran": 3243,
      "jes": 3244,
      "mớ": 3245,
      "mép": 3246,
      "mưu": 3247,
      "rỡ": 3248,
      "tống": 3249,
      "ugan": 3250,
      "xộn": 3251,
      "ngục": 3252,
      "nhét": 3253,
      "trèo": 3254,
      "trùm": 3255,
      "phơi": 3256,
      "gie": 3257,
      "choáng": 3258,
      "aris": 3259,
      "bara": 3260,
      "elec": 3261,
      "org": 3262,
      "môt": 3263,
      "huýt": 3264,
      "cks": 3265,
      "usd": 3266,
      "pera": 3267,
      "cambridge": 3268,
      "thơm": 3269,
      "ghana": 3270,
      "oxford": 3271,
      "brook": 3272,
      "higgs": 3273,
      "uganda": 3274,
      "36": 3275,
      "bs": 3276,
      "dơi": 3277,
      "fg": 3278,
      "fri": 3279,
      "nl": 3280,
      "rỗi": 3281,
      "vẫy": 3282,
      "ngừ": 3283,
      "tru": 3284,
      "trọn": 3285,
      "khe": 3286,
      "gieo": 3287,
      "die": 3288,
      "colo": 3289,
      "lympi": 3290,
      "dịu": 3291,
      "syria": 3292,
      "microsoft": 3293,
      "bướm": 3294,
      "aristot": 3295,
      "55": 3296,
      "br": 3297,
      "bron": 3298,
      "dê": 3299,
      "gon": 3300,
      "nai": 3301,
      "râu": 3302,
      "rèn": 3303,
      "túng": 3304,
      "tẩy": 3305,
      "vần": 3306,
      "vọt": 3307,
      "xơ": 3308,
      "chen": 3309,
      "entro": 3310,
      "1950": 3311,
      "had": 3312,
      "jose": 3313,
      "tweet": 3314,
      "aristotle": 3315,
      "banh": 3316,
      "bón": 3317,
      "cay": 3318,
      "dẹp": 3319,
      "ear": 3320,
      "hé": 3321,
      "hả": 3322,
      "hân": 3323,
      "hâm": 3324,
      "nu": 3325,
      "sto": 3326,
      "ston": 3327,
      "wall": 3328,
      "zy": 3329,
      "zim": 3330,
      "đòn": 3331,
      "đục": 3332,
      "trễ": 3333,
      "tang": 3334,
      "pháo": 3335,
      "thur": 3336,
      "quad": 3337,
      "chiêm": 3338,
      "lian": 3339,
      "burg": 3340,
      "syl": 3341,
      "bộc": 3342,
      "bồn": 3343,
      "cồn": 3344,
      "diều": 3345,
      "hán": 3346,
      "io": 3347,
      "mau": 3348,
      "nã": 3349,
      "nuốt": 3350,
      "tớ": 3351,
      "vớ": 3352,
      "vel": 3353,
      "xay": 3354,
      "xảo": 3355,
      "ôtô": 3356,
      "úm": 3357,
      "đàng": 3358,
      "ấng": 3359,
      "ẹo": 3360,
      "ốp": 3361,
      "ngửi": 3362,
      "trừng": 3363,
      "phồng": 3364,
      "quận": 3365,
      "cóc": 3366,
      "insu": 3367,
      "toi": 3368,
      "latin": 3369,
      "buồng": 3370,
      "neander": 3371,
      "tana": 3372,
      "sun": 3373,
      "2001": 3374,
      "key": 3375,
      "stanford": 3376,
      "taliban": 3377,
      "entropy": 3378,
      "neanderthal": 3379,
      "31": 3380,
      "blu": 3381,
      "bát": 3382,
      "bưu": 3383,
      "cd": 3384,
      "eda": 3385,
      "fan": 3386,
      "gô": 3387,
      "glo": 3388,
      "gro": 3389,
      "id": 3390,
      "kans": 3391,
      "lụ": 3392,
      "lem": 3393,
      "sếp": 3394,
      "vắng": 3395,
      "vẩn": 3396,
      "zo": 3397,
      "đè": 3398,
      "ếm": 3399,
      "ngây": 3400,
      "ngợi": 3401,
      "chay": 3402,
      "phế": 3403,
      "dou": 3404,
      "vir": 3405,
      "rida": 3406,
      "texa": 3407,
      "nghiêng": 3408,
      "prin": 3409,
      "charlie": 3410,
      "florida": 3411,
      "abraham": 3412,
      "texas": 3413,
      "av": 3414,
      "bẫy": 3415,
      "cia": 3416,
      "dưa": 3417,
      "ice": 3418,
      "kìm": 3419,
      "nâu": 3420,
      "nạp": 3421,
      "ooh": 3422,
      "olympi": 3423,
      "tảo": 3424,
      "uel": 3425,
      "way": 3426,
      "wen": 3427,
      "chì": 3428,
      "chel": 3429,
      "thạo": 3430,
      "thèm": 3431,
      "ượm": 3432,
      "holly": 3433,
      "loa": 3434,
      "ari": 3435,
      "virút": 3436,
      "esia": 3437,
      "bỏng": 3438,
      "1980": 3439,
      "hua": 3440,
      "cua": 3441,
      "beria": 3442,
      "daniel": 3443,
      "gram": 3444,
      "sling": 3445,
      "jeff": 3446,
      "shak": 3447,
      "37": 3448,
      "bến": 3449,
      "bẩy": 3450,
      "dâng": 3451,
      "ever": 3452,
      "pp": 3453,
      "pat": 3454,
      "rực": 3455,
      "scan": 3456,
      "xế": 3457,
      "ìu": 3458,
      "đắm": 3459,
      "nhã": 3460,
      "nhồi": 3461,
      "chiên": 3462,
      "chùm": 3463,
      "cán": 3464,
      "rap": 3465,
      "emi": 3466,
      "thuỳ": 3467,
      "dollar": 3468,
      "med": 3469,
      "xoáy": 3470,
      "wil": 3471,
      "brown": 3472,
      "kins": 3473,
      "ville": 3474,
      "insulin": 3475,
      "38": 3476,
      "47": 3477,
      "bc": 3478,
      "bới": 3479,
      "bre": 3480,
      "cộ": 3481,
      "dang": 3482,
      "eg": 3483,
      "ex": 3484,
      "gộp": 3485,
      "hal": 3486,
      "lội": 3487,
      "mos": 3488,
      "nín": 3489,
      "sói": 3490,
      "ủa": 3491,
      "nhộn": 3492,
      "thiếp": 3493,
      "trinh": 3494,
      "khiếu": 3495,
      "ini": 3496,
      "lou": 3497,
      "ero": 3498,
      "ence": 3499,
      "tua": 3500,
      "viêm": 3501,
      "soi": 3502,
      "rosling": 3503,
      "2050": 3504,
      "nhuộm": 3505,
      "beth": 3506,
      "mann": 3507,
      "burger": 3508,
      "bổng": 3509,
      "cyrus": 3510,
      "nãy": 3511,
      "44": 3512,
      "bỉ": 3513,
      "bời": 3514,
      "dv": 3515,
      "day": 3516,
      "dem": 3517,
      "gore": 3518,
      "lot": 3519,
      "lậu": 3520,
      "mông": 3521,
      "pla": 3522,
      "sùng": 3523,
      "tch": 3524,
      "uk": 3525,
      "xá": 3526,
      "xả": 3527,
      "yl": 3528,
      "thắp": 3529,
      "trương": 3530,
      "trội": 3531,
      "khăng": 3532,
      "khốn": 3533,
      "nghiền": 3534,
      "indon": 3535,
      "khoán": 3536,
      "dor": 3537,
      "khuất": 3538,
      "lim": 3539,
      "cafe": 3540,
      "andrew": 3541,
      "nie": 3542,
      "đun": 3543,
      "xit": 3544,
      "wolf": 3545,
      "zeal": 3546,
      "norden": 3547,
      "watson": 3548,
      "black": 3549,
      "palestine": 3550,
      "bế": 3551,
      "bren": 3552,
      "ceo": 3553,
      "dỡ": 3554,
      "eng": 3555,
      "gập": 3556,
      "jay": 3557,
      "keo": 3558,
      "lạy": 3559,
      "lượm": 3560,
      "mao": 3561,
      "mọt": 3562,
      "spa": 3563,
      "west": 3564,
      "xít": 3565,
      "ngô": 3566,
      "ngộ": 3567,
      "nhăn": 3568,
      "chặng": 3569,
      "trêu": 3570,
      "phia": 3571,
      "arthur": 3572,
      "rick": 3573,
      "laden": 3574,
      "mike": 3575,
      "detro": 3576,
      "nation": 3577,
      "marke": 3578,
      "cuả": 3579,
      "stephen": 3580,
      "bóp": 3581,
      "laser": 3582,
      "scotland": 3583,
      "singap": 3584,
      "mandela": 3585,
      "street": 3586,
      "global": 3587,
      "detroit": 3588,
      "marketing": 3589,
      "cẩu": 3590,
      "hẻo": 3591,
      "mị": 3592,
      "nuối": 3593,
      "rổ": 3594,
      "rải": 3595,
      "sảnh": 3596,
      "tạ": 3597,
      "ua": 3598,
      "ut": 3599,
      "vách": 3600,
      "ừm": 3601,
      "khiết": 3602,
      "khâu": 3603,
      "khép": 3604,
      "phôi": 3605,
      "giế": 3606,
      "toa": 3607,
      "dol": 3608,
      "tina": 3609,
      "ary": 3610,
      "right": 3611,
      "cope": 3612,
      "high": 3613,
      "kie": 3614,
      "bir": 3615,
      "tụi": 3616,
      "burgh": 3617,
      "bronx": 3618,
      "blue": 3619,
      "kansas": 3620,
      "virgi": 3621,
      "hollywood": 3622,
      "shakespe": 3623,
      "indonesia": 3624,
      "singapore": 3625,
      "58": 3626,
      "bj": 3627,
      "bội": 3628,
      "cm": 3629,
      "gor": 3630,
      "hiếu": 3631,
      "lách": 3632,
      "lượn": 3633,
      "nắp": 3634,
      "om": 3635,
      "rò": 3636,
      "sỏi": 3637,
      "tước": 3638,
      "uh": 3639,
      "vặn": 3640,
      "xài": 3641,
      "yn": 3642,
      "êt": 3643,
      "ngơi": 3644,
      "ngắt": 3645,
      "nhí": 3646,
      "nhược": 3647,
      "chốn": 3648,
      "thy": 3649,
      "thề": 3650,
      "khốc": 3651,
      "vàn": 3652,
      "hous": 3653,
      "ain": 3654,
      "log": 3655,
      "logo": 3656,
      "khoang": 3657,
      "dow": 3658,
      "philip": 3659,
      "ester": 3660,
      "bum": 3661,
      "row": 3662,
      "tech": 3663,
      "leon": 3664,
      "mur": 3665,
      "hip": 3666,
      "simon": 3667,
      "bob": 3668,
      "nico": 3669,
      "devil": 3670,
      "ett": 3671,
      "rut": 3672,
      "tụt": 3673,
      "wart": 3674,
      "iceland": 3675,
      "bùn": 3676,
      "olina": 3677,
      "nelson": 3678,
      "electron": 3679,
      "joseph": 3680,
      "giếng": 3681,
      "46": 3682,
      "bell": 3683,
      "cn": 3684,
      "cus": 3685,
      "dời": 3686,
      "hăng": 3687,
      "hàu": 3688,
      "kiều": 3689,
      "lứa": 3690,
      "lửng": 3691,
      "nếm": 3692,
      "rặng": 3693,
      "tát": 3694,
      "up": 3695,
      "váy": 3696,
      "đọng": 3697,
      "ngào": 3698,
      "chan": 3699,
      "quạt": 3700,
      "đãi": 3701,
      "đồn": 3702,
      "alpha": 3703,
      "bus": 3704,
      "chui": 3705,
      "liêng": 3706,
      "mẹo": 3707,
      "muôn": 3708,
      "2012": 3709,
      "2002": 3710,
      "carolina": 3711,
      "pound": 3712,
      "montana": 3713,
      "donald": 3714,
      "bênh": 3715,
      "watt": 3716,
      "south": 3717,
      "prince": 3718,
      "dvd": 3719,
      "zealand": 3720,
      "shakespeare": 3721,
      "98": 3722,
      "cắn": 3723,
      "dâu": 3724,
      "ei": 3725,
      "fis": 3726,
      "gand": 3727,
      "hở": 3728,
      "ipo": 3729,
      "ibm": 3730,
      "kan": 3731,
      "lấn": 3732,
      "nạ": 3733,
      "opera": 3734,
      "pra": 3735,
      "rệt": 3736,
      "suối": 3737,
      "tạc": 3738,
      "trói": 3739,
      "khử": 3740,
      "quăng": 3741,
      "tah": 3742,
      "oton": 3743,
      "int": 3744,
      "lor": 3745,
      "ami": 3746,
      "ding": 3747,
      "dian": 3748,
      "vita": 3749,
      "ngoạn": 3750,
      "chuộng": 3751,
      "mis": 3752,
      "calo": 3753,
      "bit": 3754,
      "newton": 3755,
      "bea": 3756,
      "kevin": 3757,
      "city": 3758,
      "jean": 3759,
      "malay": 3760,
      "joshua": 3761,
      "toilet": 3762,
      "gandhi": 3763,
      "aa": 3764,
      "click": 3765,
      "dd": 3766,
      "dr": 3767,
      "gel": 3768,
      "kiềm": 3769,
      "nến": 3770,
      "nứt": 3771,
      "rồng": 3772,
      "sứa": 3773,
      "wright": 3774,
      "đứt": 3775,
      "nhạo": 3776,
      "nhát": 3777,
      "chuối": 3778,
      "phích": 3779,
      "quỵ": 3780,
      "tok": 3781,
      "town": 3782,
      "tus": 3783,
      "baby": 3784,
      "bun": 3785,
      "cou": 3786,
      "chile": 3787,
      "mill": 3788,
      "sier": 3789,
      "1900": 3790,
      "1930": 3791,
      "bol": 3792,
      "mary": 3793,
      "power": 3794,
      "point": 3795,
      "1999": 3796,
      "delhi": 3797,
      "jordan": 3798,
      "42": 3799,
      "64": 3800,
      "cọc": 3801,
      "clin": 3802,
      "dồi": 3803,
      "glu": 3804,
      "găng": 3805,
      "hel": 3806,
      "jh": 3807,
      "lót": 3808,
      "map": 3809,
      "nộp": 3810,
      "rong": 3811,
      "zi": 3812,
      "đạm": 3813,
      "ngả": 3814,
      "chạp": 3815,
      "thốn": 3816,
      "vành": 3817,
      "hoi": 3818,
      "hon": 3819,
      "khinh": 3820,
      "air": 3821,
      "toria": 3822,
      "ema": 3823,
      "diana": 3824,
      "vis": 3825,
      "ros": 3826,
      "colu": 3827,
      "lewis": 3828,
      "ters": 3829,
      "cas": 3830,
      "isa": 3831,
      "ast": 3832,
      "atlan": 3833,
      "sarah": 3834,
      "bee": 3835,
      "kinson": 3836,
      "alexander": 3837,
      "disney": 3838,
      "wolfram": 3839,
      "72": 3840,
      "aw": 3841,
      "bọt": 3842,
      "cạo": 3843,
      "cla": 3844,
      "cưỡi": 3845,
      "dào": 3846,
      "fel": 3847,
      "lọt": 3848,
      "nặc": 3849,
      "oo": 3850,
      "rớt": 3851,
      "rìu": 3852,
      "sờ": 3853,
      "tẻ": 3854,
      "ux": 3855,
      "vướng": 3856,
      "vít": 3857,
      "wk": 3858,
      "xấp": 3859,
      "xốp": 3860,
      "ùn": 3861,
      "đính": 3862,
      "đốn": 3863,
      "ỉa": 3864,
      "nhấc": 3865,
      "chật": 3866,
      "chọi": 3867,
      "thỏ": 3868,
      "thừng": 3869,
      "phàn": 3870,
      "quẩn": 3871,
      "giàn": 3872,
      "củi": 3873,
      "ươc": 3874,
      "eron": 3875,
      "roy": 3876,
      "nguội": 3877,
      "matt": 3878,
      "tanzan": 3879,
      "sưởi": 3880,
      "bie": 3881,
      "nik": 3882,
      "nathan": 3883,
      "mart": 3884,
      "ngủi": 3885,
      "sher": 3886,
      "stewart": 3887,
      "fred": 3888,
      "jones": 3889,
      "scott": 3890,
      "port": 3891,
      "qaeda": 3892,
      "pamine": 3893,
      "olympic": 3894,
      "national": 3895,
      "vitamin": 3896,
      "axit": 3897,
      "bì": 3898,
      "bran": 3899,
      "bru": 3900,
      "cớ": 3901,
      "cưa": 3902,
      "cre": 3903,
      "cằn": 3904,
      "ethi": 3905,
      "gạo": 3906,
      "gắt": 3907,
      "hao": 3908,
      "lm": 3909,
      "mác": 3910,
      "pest": 3911,
      "rna": 3912,
      "tiệt": 3913,
      "tít": 3914,
      "vã": 3915,
      "xị": 3916,
      "điếu": 3917,
      "ngạo": 3918,
      "ngọc": 3919,
      "chốc": 3920,
      "trệ": 3921,
      "phớt": 3922,
      "taxi": 3923,
      "khoác": 3924,
      "dopamine": 3925,
      "tie": 3926,
      "ardo": 3927,
      "ghen": 3928,
      "liêu": 3929,
      "mili": 3930,
      "2030": 3931,
      "sis": 3932,
      "mac": 3933,
      "tedglobal": 3934,
      "wei": 3935,
      "thiêu": 3936,
      "kota": 3937,
      "para": 3938,
      "poly": 3939,
      "kenne": 3940,
      "johnny": 3941,
      "rence": 3942,
      "1984": 3943,
      "anderson": 3944,
      "foot": 3945,
      "jill": 3946,
      "poster": 3947,
      "brooklyn": 3948,
      "lụa": 3949,
      "ara": 3950,
      "bali": 3951,
      "cp": 3952,
      "cành": 3953,
      "dẳng": 3954,
      "dưng": 3955,
      "fox": 3956,
      "gớm": 3957,
      "háo": 3958,
      "mìn": 3959,
      "rùa": 3960,
      "sp": 3961,
      "tuộc": 3962,
      "von": 3963,
      "vắt": 3964,
      "vựng": 3965,
      "vùi": 3966,
      "zler": 3967,
      "nhại": 3968,
      "nham": 3969,
      "nhục": 3970,
      "nhúng": 3971,
      "chinh": 3972,
      "thảy": 3973,
      "trá": 3974,
      "tràng": 3975,
      "phanh": 3976,
      "lock": 3977,
      "ameri": 3978,
      "erson": 3979,
      "aron": 3980,
      "alan": 3981,
      "bati": 3982,
      "khuếch": 3983,
      "robi": 3984,
      "usha": 3985,
      "ash": 3986,
      "berry": 3987,
      "moore": 3988,
      "ardy": 3989,
      "hammad": 3990,
      "ering": 3991,
      "zabeth": 3992,
      "julia": 3993,
      "parkinson": 3994,
      "venice": 3995,
      "nhagen": 3996,
      "ollo": 3997,
      "elizabeth": 3998,
      "bosnia": 3999,
      "desh": 4000,
      "mỉa": 4001,
      "hawai": 4002,
      "copenhagen": 4003,
      "virginia": 4004,
      "tanzania": 4005,
      "130": 4006,
      "aci": 4007,
      "bor": 4008,
      "eve": 4009,
      "gri": 4010,
      "ion": 4011,
      "láng": 4012,
      "lụt": 4013,
      "méo": 4014,
      "nộ": 4015,
      "nới": 4016,
      "nấc": 4017,
      "sương": 4018,
      "spe": 4019,
      "tở": 4020,
      "tcha": 4021,
      "ún": 4022,
      "đôn": 4023,
      "đặn": 4024,
      "ũa": 4025,
      "ẹt": 4026,
      "ệch": 4027,
      "ợm": 4028,
      "nhức": 4029,
      "nhọn": 4030,
      "chích": 4031,
      "chênh": 4032,
      "ras": 4033,
      "choàng": 4034,
      "ann": 4035,
      "diễu": 4036,
      "argen": 4037,
      "alem": 4038,
      "album": 4039,
      "law": 4040,
      "bul": 4041,
      "buồm": 4042,
      "somal": 4043,
      "huỳ": 4044,
      "susan": 4045,
      "boy": 4046,
      "usalem": 4047,
      "maya": 4048,
      "carl": 4049,
      "moz": 4050,
      "tụng": 4051,
      "edward": 4052,
      "teszler": 4053,
      "opia": 4054,
      "jerusalem": 4055,
      "shir": 4056,
      "stone": 4057,
      "clinton": 4058,
      "argentina": 4059,
      "350": 4060,
      "bự": 4061,
      "báu": 4062,
      "cer": 4063,
      "cào": 4064,
      "cúi": 4065,
      "cưng": 4066,
      "gán": 4067,
      "gầy": 4068,
      "hr": 4069,
      "kép": 4070,
      "lười": 4071,
      "lung": 4072,
      "nực": 4073,
      "omon": 4074,
      "reo": 4075,
      "vá": 4076,
      "vỉa": 4077,
      "yu": 4078,
      "õm": 4079,
      "điểu": 4080,
      "đươc": 4081,
      "ngự": 4082,
      "nhốt": 4083,
      "thối": 4084,
      "phả": 4085,
      "quấn": 4086,
      "quầy": 4087,
      "mài": 4088,
      "toạ": 4089,
      "khoe": 4090,
      "ture": 4091,
      "leone": 4092,
      "muhammad": 4093,
      "hidi": 4094,
      "hill": 4095,
      "sil": 4096,
      "sion": 4097,
      "mah": 4098,
      "rey": 4099,
      "suýt": 4100,
      "time": 4101,
      "lincol": 4102,
      "pep": 4103,
      "steven": 4104,
      "bono": 4105,
      "fiel": 4106,
      "christo": 4107,
      "benjam": 4108,
      "captcha": 4109,
      "pheromon": 4110,
      "ipad": 4111,
      "victoria": 4112,
      "jenni": 4113,
      "sylvia": 4114,
      "doug": 4115,
      "babylon": 4116,
      "sierra": 4117,
      "columbia": 4118,
      "ethiopia": 4119,
      "huỳnh": 4120,
      "lincoln": 4121,
      "86": 4122,
      "96": 4123,
      "97": 4124,
      "ab": 4125,
      "ata": 4126,
      "athan": 4127,
      "bệ": 4128,
      "cot": 4129,
      "căm": 4130,
      "clar": 4131,
      "dj": 4132,
      "dạn": 4133,
      "dus": 4134,
      "ffi": 4135,
      "gục": 4136,
      "gos": 4137,
      "gốm": 4138,
      "ix": 4139,
      "kam": 4140,
      "kiếp": 4141,
      "lúng": 4142,
      "lén": 4143,
      "mánh": 4144,
      "oec": 4145,
      "rk": 4146,
      "rảnh": 4147,
      "swe": 4148,
      "set": 4149,
      "tặc": 4150,
      "vác": 4151,
      "xì": 4152,
      "xẻ": 4153,
      "xổ": 4154,
      "xon": 4155,
      "đắng": 4156,
      "đầm": 4157,
      "ụn": 4158,
      "nháy": 4159,
      "chổ": 4160,
      "trớ": 4161,
      "phiện": 4162,
      "nóc": 4163,
      "anas": 4164,
      "hock": 4165,
      "love": 4166,
      "eman": 4167,
      "emma": 4168,
      "xuôi": 4169,
      "roger": 4170,
      "coo": 4171,
      "apollo": 4172,
      "mee": 4173,
      "wich": 4174,
      "att": 4175,
      "cửu": 4176,
      "gót": 4177,
      "cameron": 4178,
      "beat": 4179,
      "180": 4180,
      "jac": 4181,
      "julian": 4182,
      "broad": 4183,
      "water": 4184,
      "put": 4185,
      "jonathan": 4186,
      "jane": 4187,
      "greenland": 4188,
      "keley": 4189,
      "qatar": 4190,
      "leonardo": 4191,
      "ipod": 4192,
      "hawaii": 4193,
      "somalia": 4194,
      "oecd": 4195,
      "140": 4196,
      "160": 4197,
      "34": 4198,
      "900": 4199,
      "côi": 4200,
      "clo": 4201,
      "cru": 4202,
      "evan": 4203,
      "hot": 4204,
      "hiên": 4205,
      "hức": 4206,
      "hem": 4207,
      "jar": 4208,
      "jas": 4209,
      "kal": 4210,
      "mg": 4211,
      "nin": 4212,
      "oz": 4213,
      "ola": 4214,
      "ome": 4215,
      "pot": 4216,
      "sộ": 4217,
      "sấu": 4218,
      "spi": 4219,
      "sput": 4220,
      "vem": 4221,
      "ww": 4222,
      "xào": 4223,
      "xót": 4224,
      "yves": 4225,
      "êc": 4226,
      "đự": 4227,
      "đười": 4228,
      "ngâm": 4229,
      "chang": 4230,
      "chảo": 4231,
      "chéo": 4232,
      "chén": 4233,
      "thà": 4234,
      "thỉ": 4235,
      "thản": 4236,
      "phth": 4237,
      "giầy": 4238,
      "inburgh": 4239,
      "ươm": 4240,
      "virut": 4241,
      "ngoặt": 4242,
      "rie": 4243,
      "alas": 4244,
      "ladesh": 4245,
      "bucks": 4246,
      "rou": 4247,
      "cock": 4248,
      "bén": 4249,
      "chigan": 4250,
      "nguỵ": 4251,
      "siberia": 4252,
      "maha": 4253,
      "tỉa": 4254,
      "lãi": 4255,
      "banjo": 4256,
      "bow": 4257,
      "cut": 4258,
      "berkeley": 4259,
      "tric": 4260,
      "jaze": 4261,
      "alice": 4262,
      "hamburger": 4263,
      "russ": 4264,
      "graphi": 4265,
      "burn": 4266,
      "edinburgh": 4267,
      "witz": 4268,
      "word": 4269,
      "mỉm": 4270,
      "penn": 4271,
      "kelly": 4272,
      "babwe": 4273,
      "tasmanian": 4274,
      "earth": 4275,
      "zimbabwe": 4276,
      "tokyo": 4277,
      "ushahidi": 4278,
      "acid": 4279,
      "tởm": 4280,
      "sputnik": 4281,
      "jazeera": 4282,
      "41": 4283,
      "5000": 4284,
      "68": 4285,
      "77": 4286,
      "bhu": 4287,
      "cày": 4288,
      "cúng": 4289,
      "clay": 4290,
      "dì": 4291,
      "dẫu": 4292,
      "ez": 4293,
      "ech": 4294,
      "evel": 4295,
      "hốc": 4296,
      "has": 4297,
      "heli": 4298,
      "jeo": 4299,
      "jus": 4300,
      "mầu": 4301,
      "oc": 4302,
      "od": 4303,
      "rr": 4304,
      "rà": 4305,
      "rậm": 4306,
      "sáp": 4307,
      "sse": 4308,
      "tý": 4309,
      "tứ": 4310,
      "tòi": 4311,
      "vầy": 4312,
      "xáo": 4313,
      "đỗi": 4314,
      "điếc": 4315,
      "ơc": 4316,
      "chiết": 4317,
      "phu": 4318,
      "quấy": 4319,
      "gil": 4320,
      "giục": 4321,
      "giun": 4322,
      "aus": 4323,
      "bịt": 4324,
      "luther": 4325,
      "phila": 4326,
      "bas": 4327,
      "khuấy": 4328,
      "coper": 4329,
      "chie": 4330,
      "negie": 4331,
      "mil": 4332,
      "michigan": 4333,
      "chad": 4334,
      "nike": 4335,
      "dera": 4336,
      "xoa": 4337,
      "marco": 4338,
      "robin": 4339,
      "atch": 4340,
      "etti": 4341,
      "carnegie": 4342,
      "kei": 4343,
      "bangladesh": 4344,
      "chóp": 4345,
      "head": 4346,
      "1996": 4347,
      "1998": 4348,
      "tesla": 4349,
      "hungary": 4350,
      "alate": 4351,
      "north": 4352,
      "delphia": 4353,
      "corn": 4354,
      "phere": 4355,
      "bướu": 4356,
      "starbucks": 4357,
      "pass": 4358,
      "rãnh": 4359,
      "colombia": 4360,
      "atlanta": 4361,
      "xịt": 4362,
      "kennedy": 4363,
      "field": 4364,
      "benjamin": 4365,
      "phthalate": 4366,
      "jeop": 4367,
      "philadelphia": 4368,
      "coperni": 4369,
      "bb": 4370,
      "bôi": 4371,
      "bầm": 4372,
      "cle": 4373,
      "dra": 4374,
      "hèn": 4375,
      "ivan": 4376,
      "ks": 4377,
      "kur": 4378,
      "lanh": 4379,
      "lầy": 4380,
      "sia": 4381,
      "sar": 4382,
      "seri": 4383,
      "ul": 4384,
      "vôi": 4385,
      "viền": 4386,
      "xâu": 4387,
      "xắn": 4388,
      "zơ": 4389,
      "nhôm": 4390,
      "chải": 4391,
      "chằng": 4392,
      "chồn": 4393,
      "trỗi": 4394,
      "khống": 4395,
      "ral": 4396,
      "ani": 4397,
      "ony": 4398,
      "lakota": 4399,
      "like": 4400,
      "apag": 4401,
      "duyên": 4402,
      "ghim": 4403,
      "dur": 4404,
      "joel": 4405,
      "see": 4406,
      "berlin": 4407,
      "movem": 4408,
      "triễn": 4409,
      "trice": 4410,
      "now": 4411,
      "chói": 4412,
      "illin": 4413,
      "mail": 4414,
      "nanop": 4415,
      "warren": 4416,
      "galapag": 4417,
      "cape": 4418,
      "jackson": 4419,
      "sandwich": 4420,
      "tasmania": 4421,
      "fried": 4422,
      "everest": 4423,
      "emily": 4424,
      "plato": 4425,
      "house": 4426,
      "movember": 4427,
      "nanopatch": 4428,
      "galapagos": 4429,
      "49": 4430,
      "52": 4431,
      "aaron": 4432,
      "bã": 4433,
      "bành": 4434,
      "bàng": 4435,
      "báng": 4436,
      "cl": 4437,
      "cau": 4438,
      "cẩm": 4439,
      "dấn": 4440,
      "gật": 4441,
      "gus": 4442,
      "hin": 4443,
      "lạt": 4444,
      "lla": 4445,
      "lẫy": 4446,
      "mbai": 4447,
      "nồi": 4448,
      "neo": 4449,
      "oak": 4450,
      "rw": 4451,
      "sr": 4452,
      "sải": 4453,
      "sập": 4454,
      "tột": 4455,
      "vv": 4456,
      "vũng": 4457,
      "zero": 4458,
      "đắc": 4459,
      "đấng": 4460,
      "ềng": 4461,
      "ngước": 4462,
      "ngặt": 4463,
      "nhượng": 4464,
      "chanh": 4465,
      "chell": 4466,
      "thạc": 4467,
      "thủng": 4468,
      "trù": 4469,
      "kha": 4470,
      "phông": 4471,
      "quáng": 4472,
      "giang": 4473,
      "giềng": 4474,
      "rane": 4475,
      "toster": 4476,
      "aman": 4477,
      "ens": 4478,
      "enzy": 4479,
      "tis": 4480,
      "titan": 4481,
      "violin": 4482,
      "nguyệt": 4483,
      "ghề": 4484,
      "bud": 4485,
      "rome": 4486,
      "elli": 4487,
      "nepal": 4488,
      "mumbai": 4489,
      "hit": 4490,
      "190": 4491,
      "lair": 4492,
      "kilo": 4493,
      "sudan": 4494,
      "bio": 4495,
      "news": 4496,
      "sex": 4497,
      "vol": 4498,
      "ryan": 4499,
      "games": 4500,
      "johnson": 4501,
      "file": 4502,
      "1994": 4503,
      "1995": 4504,
      "testoster": 4505,
      "great": 4506,
      "jihad": 4507,
      "zona": 4508,
      "samuel": 4509,
      "trea": 4510,
      "cairo": 4511,
      "post": 4512,
      "tempest": 4513,
      "neuron": 4514,
      "fgm": 4515,
      "arizona": 4516,
      "princeton": 4517,
      "powerpoint": 4518,
      "christopher": 4519,
      "attle": 4520,
      "bhutan": 4521,
      "jeopardy": 4522,
      "testosterone": 4523,
      "43": 4524,
      "78": 4525,
      "câm": 4526,
      "cri": 4527,
      "ces": 4528,
      "còi": 4529,
      "hh": 4530,
      "iq": 4531,
      "kỵ": 4532,
      "lít": 4533,
      "mội": 4534,
      "mck": 4535,
      "mặn": 4536,
      "nang": 4537,
      "náo": 4538,
      "oi": 4539,
      "pre": 4540,
      "rg": 4541,
      "ròng": 4542,
      "sm": 4543,
      "sừng": 4544,
      "sẹo": 4545,
      "tản": 4546,
      "tưới": 4547,
      "vuốt": 4548,
      "viếng": 4549,
      "xở": 4550,
      "đê": 4551,
      "đậy": 4552,
      "đắp": 4553,
      "ngà": 4554,
      "nhai": 4555,
      "nhọc": 4556,
      "thêu": 4557,
      "thẹn": 4558,
      "trơn": 4559,
      "khờ": 4560,
      "phình": 4561,
      "phao": 4562,
      "quẳng": 4563,
      "rachel": 4564,
      "toron": 4565,
      "bịch": 4566,
      "dick": 4567,
      "lus": 4568,
      "ribati": 4569,
      "bad": 4570,
      "rose": 4571,
      "romo": 4572,
      "teen": 4573,
      "thoven": 4574,
      "taylor": 4575,
      "cob": 4576,
      "dad": 4577,
      "dave": 4578,
      "mag": 4579,
      "kiribati": 4580,
      "suôn": 4581,
      "sure": 4582,
      "super": 4583,
      "gol": 4584,
      "havard": 4585,
      "sara": 4586,
      "125": 4587,
      "caro": 4588,
      "gara": 4589,
      "prô": 4590,
      "women": 4591,
      "kara": 4592,
      "versi": 4593,
      "scra": 4594,
      "grace": 4595,
      "jonas": 4596,
      "garet": 4597,
      "larry": 4598,
      "skype": 4599,
      "jesus": 4600,
      "louis": 4601,
      "beethoven": 4602,
      "jennifer": 4603,
      "thỉu": 4604,
      "alaska": 4605,
      "toronto": 4606,
      "39": 4607,
      "450": 4608,
      "84": 4609,
      "alo": 4610,
      "cỗi": 4611,
      "dc": 4612,
      "dấy": 4613,
      "dal": 4614,
      "flu": 4615,
      "gồ": 4616,
      "gôn": 4617,
      "gầm": 4618,
      "hc": 4619,
      "hươ": 4620,
      "hắc": 4621,
      "kị": 4622,
      "kèn": 4623,
      "lố": 4624,
      "lầu": 4625,
      "lộng": 4626,
      "miên": 4627,
      "mama": 4628,
      "nao": 4629,
      "pap": 4630,
      "pur": 4631,
      "rem": 4632,
      "rách": 4633,
      "sạc": 4634,
      "ski": 4635,
      "sụt": 4636,
      "who": 4637,
      "xl": 4638,
      "ngs": 4639,
      "ngần": 4640,
      "ngợp": 4641,
      "nhẽ": 4642,
      "chổi": 4643,
      "thình": 4644,
      "trỏ": 4645,
      "phượng": 4646,
      "tain": 4647,
      "họng": 4648,
      "loan": 4649,
      "dore": 4650,
      "tica": 4651,
      "titus": 4652,
      "rid": 4653,
      "basti": 4654,
      "bazơ": 4655,
      "buông": 4656,
      "copy": 4657,
      "liễu": 4658,
      "lẽo": 4659,
      "sio": 4660,
      "cad": 4661,
      "1975": 4662,
      "kiêu": 4663,
      "rea": 4664,
      "gold": 4665,
      "haha": 4666,
      "margaret": 4667,
      "link": 4668,
      "cuba": 4669,
      "seattle": 4670,
      "yorker": 4671,
      "thew": 4672,
      "hea": 4673,
      "eller": 4674,
      "graham": 4675,
      "geographi": 4676,
      "hanna": 4677,
      "proje": 4678,
      "walker": 4679,
      "jersey": 4680,
      "craig": 4681,
      "cheryl": 4682,
      "reddi": 4683,
      "lesterland": 4684,
      "europa": 4685,
      "hormon": 4686,
      "jefferson": 4687,
      "cnn": 4688,
      "lawrence": 4689,
      "đựơc": 4690,
      "4000": 4691,
      "57": 4692,
      "76": 4693,
      "ace": 4694,
      "bú": 4695,
      "bes": 4696,
      "cca": 4697,
      "dt": 4698,
      "dè": 4699,
      "fda": 4700,
      "fbi": 4701,
      "fil": 4702,
      "fur": 4703,
      "gặm": 4704,
      "hall": 4705,
      "ica": 4706,
      "ike": 4707,
      "jr": 4708,
      "lẩn": 4709,
      "mot": 4710,
      "mường": 4711,
      "nòng": 4712,
      "nấng": 4713,
      "rho": 4714,
      "rọi": 4715,
      "răn": 4716,
      "rạc": 4717,
      "rạng": 4718,
      "rẩy": 4719,
      "sco": 4720,
      "sấm": 4721,
      "wai": 4722,
      "xói": 4723,
      "đút": 4724,
      "điềm": 4725,
      "ưởi": 4726,
      "nhô": 4727,
      "nhung": 4728,
      "nhấm": 4729,
      "trút": 4730,
      "trina": 4731,
      "phot": 4732,
      "phẫn": 4733,
      "giễu": 4734,
      "rain": 4735,
      "hoạn": 4736,
      "aimee": 4737,
      "loé": 4738,
      "bịp": 4739,
      "thuở": 4740,
      "doha": 4741,
      "down": 4742,
      "vian": 4743,
      "bach": 4744,
      "ghetti": 4745,
      "lab": 4746,
      "ross": 4747,
      "code": 4748,
      "chill": 4749,
      "1945": 4750,
      "island": 4751,
      "tedtalk": 4752,
      "cky": 4753,
      "timore": 4754,
      "hack": 4755,
      "dean": 4756,
      "wide": 4757,
      "dubai": 4758,
      "ette": 4759,
      "carol": 4760,
      "beau": 4761,
      "bertie": 4762,
      "fort": 4763,
      "unds": 4764,
      "khuya": 4765,
      "katrina": 4766,
      "inea": 4767,
      "vancou": 4768,
      "guinea": 4769,
      "juli": 4770,
      "julie": 4771,
      "peru": 4772,
      "park": 4773,
      "state": 4774,
      "allen": 4775,
      "oregon": 4776,
      "1992": 4777,
      "1997": 4778,
      "blogger": 4779,
      "kyoto": 4780,
      "mitchell": 4781,
      "foxo": 4782,
      "mcdonald": 4783,
      "microrna": 4784,
      "gary": 4785,
      "jerry": 4786,
      "seroton": 4787,
      "hawking": 4788,
      "marathon": 4789,
      "oliver": 4790,
      "diego": 4791,
      "nairobi": 4792,
      "demo": 4793,
      "spaghetti": 4794,
      "uhm": 4795,
      "murray": 4796,
      "beach": 4797,
      "fellow": 4798,
      "sween": 4799,
      "keith": 4800,
      "password": 4801,
      "hươu": 4802,
      "geographic": 4803,
      "vancouver": 4804,
      "serotonin": 4805,
      "59": 4806,
      "6000": 4807,
      "aba": 4808,
      "abu": 4809,
      "bần": 4810,
      "bục": 4811,
      "bis": 4812,
      "bùm": 4813,
      "cõi": 4814,
      "dney": 4815,
      "ezu": 4816,
      "gởi": 4817,
      "gwen": 4818,
      "hong": 4819,
      "kay": 4820,
      "lự": 4821,
      "miệt": 4822,
      "more": 4823,
      "n1": 4824,
      "nôi": 4825,
      "nôn": 4826,
      "nap": 4827,
      "nặn": 4828,
      "rành": 4829,
      "rạch": 4830,
      "rụng": 4831,
      "sỡ": 4832,
      "scho": 4833,
      "sảy": 4834,
      "sms": 4835,
      "shock": 4836,
      "tb": 4837,
      "teo": 4838,
      "túp": 4839,
      "vóc": 4840,
      "wang": 4841,
      "yon": 4842,
      "đẫm": 4843,
      "nhổ": 4844,
      "nhảm": 4845,
      "nhún": 4846,
      "chệch": 4847,
      "trâu": 4848,
      "trọt": 4849,
      "phà": 4850,
      "phai": 4851,
      "quỳ": 4852,
      "giê": 4853,
      "cáu": 4854,
      "tara": 4855,
      "otto": 4856,
      "inda": 4857,
      "tos": 4858,
      "saurus": 4859,
      "cơm": 4860,
      "hãnh": 4861,
      "xuẩn": 4862,
      "alia": 4863,
      "alber": 4864,
      "nguyền": 4865,
      "ese": 4866,
      "lash": 4867,
      "bule": 4868,
      "sol": 4869,
      "sobule": 4870,
      "rom": 4871,
      "tein": 4872,
      "thoa": 4873,
      "leban": 4874,
      "mul": 4875,
      "2020": 4876,
      "2013": 4877,
      "himalay": 4878,
      "sica": 4879,
      "kiêm": 4880,
      "read": 4881,
      "chat": 4882,
      "kén": 4883,
      "nicho": 4884,
      "nitric": 4885,
      "mey": 4886,
      "meer": 4887,
      "metan": 4888,
      "mega": 4889,
      "mario": 4890,
      "dun": 4891,
      "canxi": 4892,
      "bíp": 4893,
      "card": 4894,
      "sebasti": 4895,
      "pac": 4896,
      "bangalo": 4897,
      "moma": 4898,
      "geh": 4899,
      "bonac": 4900,
      "hamas": 4901,
      "fibonac": 4902,
      "venezu": 4903,
      "mala": 4904,
      "baltimore": 4905,
      "caltech": 4906,
      "franklin": 4907,
      "white": 4908,
      "matthew": 4909,
      "stir": 4910,
      "ukra": 4911,
      "mịn": 4912,
      "american": 4913,
      "copernicus": 4914,
      "oakland": 4915,
      "treasure": 4916,
      "photos": 4917,
      "sweeney": 4918,
      "lebanon": 4919,
      "bangalore": 4920,
      "fibonacci": 4921,
      "venezuela": 4922,
      "05": 4923,
      "110": 4924,
      "54": 4925,
      "67": 4926,
      "az": 4927,
      "ava": 4928,
      "axít": 4929,
      "bô": 4930,
      "bạt": 4931,
      "ball": 4932,
      "dg": 4933,
      "dẫm": 4934,
      "gò": 4935,
      "gân": 4936,
      "gào": 4937,
      "gáy": 4938,
      "hl": 4939,
      "hs": 4940,
      "hran": 4941,
      "kis": 4942,
      "kas": 4943,
      "ml": 4944,
      "măng": 4945,
      "mút": 4946,
      "nè": 4947,
      "not": 4948,
      "rot": 4949,
      "rưởi": 4950,
      "sk": 4951,
      "sút": 4952,
      "tú": 4953,
      "tể": 4954,
      "vas": 4955,
      "xông": 4956,
      "xén": 4957,
      "yale": 4958,
      "ụi": 4959,
      "ngách": 4960,
      "nhì": 4961,
      "chắt": 4962,
      "quật": 4963,
      "giòn": 4964,
      "nghênh": 4965,
      "rao": 4966,
      "rang": 4967,
      "anne": 4968,
      "ink": 4969,
      "tora": 4970,
      "lol": 4971,
      "loà": 4972,
      "saudi": 4973,
      "end": 4974,
      "ent": 4975,
      "diêm": 4976,
      "ias": 4977,
      "philli": 4978,
      "albert": 4979,
      "alfred": 4980,
      "sopa": 4981,
      "roll": 4982,
      "rory": 4983,
      "tehran": 4984,
      "thoi": 4985,
      "nec": 4986,
      "lei": 4987,
      "lic": 4988,
      "liu": 4989,
      "liberia": 4990,
      "oscar": 4991,
      "daf": 4992,
      "cata": 4993,
      "math": 4994,
      "kibe": 4995,
      "god": 4996,
      "billy": 4997,
      "box": 4998,
      "nett": 4999,
      "duỗi": 5000,
      "atem": 5001,
      "lins": 5002,
      "404": 5003,
      "kep": 5004,
      "shar": 5005,
      "gaza": 5006,
      "noby": 5007,
      "gando": 5008,
      "theon": 5009,
      "harlem": 5010,
      "jamai": 5011,
      "gallon": 5012,
      "pantheon": 5013,
      "chernoby": 5014,
      "melinda": 5015,
      "grand": 5016,
      "mozart": 5017,
      "pepsi": 5018,
      "pheromone": 5019,
      "potter": 5020,
      "justin": 5021,
      "stirling": 5022,
      "photoshop": 5023,
      "kibera": 5024,
      "chernobyl": 5025,
      "360": 5026,
      "53": 5027,
      "79": 5028,
      "avi": 5029,
      "acc": 5030,
      "blan": 5031,
      "biếng": 5032,
      "cta": 5033,
      "dri": 5034,
      "dốt": 5035,
      "dale": 5036,
      "ef": 5037,
      "east": 5038,
      "fra": 5039,
      "fon": 5040,
      "fai": 5041,
      "gad": 5042,
      "hời": 5043,
      "húp": 5044,
      "iso": 5045,
      "kông": 5046,
      "lốc": 5047,
      "lẫm": 5048,
      "mbi": 5049,
      "nung": 5050,
      "nọc": 5051,
      "ota": 5052,
      "ody": 5053,
      "pc": 5054,
      "pon": 5055,
      "pia": 5056,
      "pes": 5057,
      "pun": 5058,
      "palex": 5059,
      "play": 5060,
      "rệ": 5061,
      "rán": 5062,
      "sri": 5063,
      "sad": 5064,
      "spri": 5065,
      "văng": 5066,
      "vệt": 5067,
      "vãn": 5068,
      "yến": 5069,
      "zip": 5070,
      "đũa": 5071,
      "ợc": 5072,
      "ngất": 5073,
      "ngửa": 5074,
      "chao": 5075,
      "chửng": 5076,
      "thục": 5077,
      "try": 5078,
      "phan": 5079,
      "giở": 5080,
      "chocola": 5081,
      "aye": 5082,
      "anthon": 5083,
      "amster": 5084,
      "doo": 5085,
      "ena": 5086,
      "luẩn": 5087,
      "vie": 5088,
      "rir": 5089,
      "essex": 5090,
      "latinh": 5091,
      "ele": 5092,
      "chuồng": 5093,
      "chiêu": 5094,
      "child": 5095,
      "nee": 5096,
      "neil": 5097,
      "michel": 5098,
      "vụng": 5099,
      "hir": 5100,
      "cast": 5101,
      "max": 5102,
      "hur": 5103,
      "sain": 5104,
      "rex": 5105,
      "sưng": 5106,
      "andro": 5107,
      "bil": 5108,
      "night": 5109,
      "oko": 5110,
      "mars": 5111,
      "maria": 5112,
      "wing": 5113,
      "ets": 5114,
      "sachu": 5115,
      "manuel": 5116,
      "moi": 5117,
      "moud": 5118,
      "gaga": 5119,
      "bonnie": 5120,
      "noel": 5121,
      "santa": 5122,
      "sci": 5123,
      "gui": 5124,
      "guatem": 5125,
      "bart": 5126,
      "tennes": 5127,
      "langley": 5128,
      "irag": 5129,
      "1989": 5130,
      "oprah": 5131,
      "foun": 5132,
      "freespe": 5133,
      "progeria": 5134,
      "norman": 5135,
      "plex": 5136,
      "kerry": 5137,
      "rockett": 5138,
      "cello": 5139,
      "williams": 5140,
      "shei": 5141,
      "turk": 5142,
      "barack": 5143,
      "ngừơi": 5144,
      "wilson": 5145,
      "moses": 5146,
      "dolby": 5147,
      "tahrir": 5148,
      "miller": 5149,
      "bruce": 5150,
      "mahat": 5151,
      "gehry": 5152,
      "palextin": 5153,
      "chocolate": 5154,
      "amsterdam": 5155,
      "guatemala": 5156,
      "freespeech": 5157,
      "56": 5158,
      "66": 5159,
      "74": 5160,
      "82": 5161,
      "94": 5162,
      "bble": 5163,
      "cật": 5164,
      "cội": 5165,
      "dh": 5166,
      "dặn": 5167,
      "econ": 5168,
      "eco": 5169,
      "fen": 5170,
      "fli": 5171,
      "gt": 5172,
      "gặt": 5173,
      "gla": 5174,
      "gali": 5175,
      "hót": 5176,
      "hmm": 5177,
      "hằn": 5178,
      "irắc": 5179,
      "jet": 5180,
      "kat": 5181,
      "ls": 5182,
      "mí": 5183,
      "mba": 5184,
      "nar": 5185,
      "nba": 5186,
      "náu": 5187,
      "ness": 5188,
      "núm": 5189,
      "oth": 5190,
      "omi": 5191,
      "ois": 5192,
      "out": 5193,
      "rơ": 5194,
      "rộ": 5195,
      "rụi": 5196,
      "sên": 5197,
      "sục": 5198,
      "sảo": 5199,
      "scha": 5200,
      "sụn": 5201,
      "td": 5202,
      "tấu": 5203,
      "ubun": 5204,
      "váng": 5205,
      "var": 5206,
      "wes": 5207,
      "yan": 5208,
      "zk": 5209,
      "zen": 5210,
      "đấm": 5211,
      "ẵng": 5212,
      "ỏm": 5213,
      "ngó": 5214,
      "ngơ": 5215,
      "ngấm": 5216,
      "nhút": 5217,
      "chững": 5218,
      "chộp": 5219,
      "thê": 5220,
      "thiển": 5221,
      "thia": 5222,
      "tral": 5223,
      "khay": 5224,
      "phồn": 5225,
      "giông": 5226,
      "hou": 5227,
      "hoán": 5228,
      "hoóc": 5229,
      "auro": 5230,
      "intel": 5231,
      "tour": 5232,
      "tops": 5233,
      "loang": 5234,
      "loãng": 5235,
      "khoả": 5236,
      "khoanh": 5237,
      "khoát": 5238,
      "eme": 5239,
      "bịa": 5240,
      "thula": 5241,
      "ambi": 5242,
      "tuôn": 5243,
      "tunis": 5244,
      "tive": 5245,
      "ariel": 5246,
      "arkansas": 5247,
      "archie": 5248,
      "viêc": 5249,
      "esg": 5250,
      "solly": 5251,
      "roshi": 5252,
      "tera": 5253,
      "coch": 5254,
      "els": 5255,
      "orle": 5256,
      "data": 5257,
      "mun": 5258,
      "hiroshi": 5259,
      "humara": 5260,
      "ish": 5261,
      "kiva": 5262,
      "tedmed": 5263,
      "tedwomen": 5264,
      "sus": 5265,
      "goering": 5266,
      "andy": 5267,
      "haz": 5268,
      "media": 5269,
      "10000": 5270,
      "nauy": 5271,
      "marin": 5272,
      "marsh": 5273,
      "will": 5274,
      "joey": 5275,
      "carter": 5276,
      "bern": 5277,
      "moham": 5278,
      "shan": 5279,
      "pipa": 5280,
      "stefan": 5281,
      "noi": 5282,
      "jake": 5283,
      "kate": 5284,
      "hei": 5285,
      "vania": 5286,
      "harry": 5287,
      "guar": 5288,
      "dennis": 5289,
      "christi": 5290,
      "charlot": 5291,
      "nhoi": 5292,
      "nhoáng": 5293,
      "ailen": 5294,
      "1986": 5295,
      "stanley": 5296,
      "karl": 5297,
      "serge": 5298,
      "ireland": 5299,
      "kẽm": 5300,
      "horn": 5301,
      "sylvania": 5302,
      "logy": 5303,
      "maryland": 5304,
      "gluco": 5305,
      "weibo": 5306,
      "mahmoud": 5307,
      "pennsylvania": 5308,
      "gilbert": 5309,
      "scratch": 5310,
      "ikea": 5311,
      "tarahumara": 5312,
      "nicholas": 5313,
      "toraja": 5314,
      "kepler": 5315,
      "rệp": 5316,
      "anthony": 5317,
      "castle": 5318,
      "sachuset": 5319,
      "tennessee": 5320,
      "ubuntu": 5321,
      "orleans": 5322,
      "89": 5323,
      "bp": 5324,
      "bở": 5325,
      "cợt": 5326,
      "dế": 5327,
      "dạt": 5328,
      "dép": 5329,
      "dall": 5330,
      "fus": 5331,
      "gs": 5332,
      "gap": 5333,
      "glas": 5334,
      "hp": 5335,
      "hóm": 5336,
      "hỉnh": 5337,
      "kap": 5338,
      "lình": 5339,
      "lóng": 5340,
      "mr": 5341,
      "mes": 5342,
      "mbo": 5343,
      "mali": 5344,
      "nể": 5345,
      "nại": 5346,
      "nạt": 5347,
      "nách": 5348,
      "nấp": 5349,
      "pao": 5350,
      "pper": 5351,
      "rợ": 5352,
      "rin": 5353,
      "râm": 5354,
      "rắm": 5355,
      "rẫy": 5356,
      "sành": 5357,
      "sat": 5358,
      "sủa": 5359,
      "tn": 5360,
      "té": 5361,
      "tso": 5362,
      "ucla": 5363,
      "vy": 5364,
      "vơ": 5365,
      "vấp": 5366,
      "wu": 5367,
      "wne": 5368,
      "whoa": 5369,
      "xao": 5370,
      "ém": 5371,
      "đả": 5372,
      "đong": 5373,
      "đùng": 5374,
      "đùi": 5375,
      "ẩng": 5376,
      "ngời": 5377,
      "nger": 5378,
      "ngẩng": 5379,
      "nhứng": 5380,
      "chậu": 5381,
      "thầu": 5382,
      "thét": 5383,
      "thuyên": 5384,
      "khánh": 5385,
      "rami": 5386,
      "homo": 5387,
      "austr": 5388,
      "connec": 5389,
      "khoé": 5390,
      "kholm": 5391,
      "luồn": 5392,
      "ticut": 5393,
      "aren": 5394,
      "vịn": 5395,
      "buff": 5396,
      "tec": 5397,
      "chur": 5398,
      "liby": 5399,
      "dation": 5400,
      "mud": 5401,
      "bayes": 5402,
      "hire": 5403,
      "cass": 5404,
      "maa": 5405,
      "maf": 5406,
      "ise": 5407,
      "nghiã": 5408,
      "rezero": 5409,
      "sum": 5410,
      "bios": 5411,
      "bora": 5412,
      "nitơ": 5413,
      "lanka": 5414,
      "netfli": 5415,
      "mari": 5416,
      "wick": 5417,
      "linux": 5418,
      "1500": 5419,
      "cur": 5420,
      "tail": 5421,
      "patri": 5422,
      "ller": 5423,
      "1800": 5424,
      "moor": 5425,
      "pier": 5426,
      "vey": 5427,
      "noah": 5428,
      "jacob": 5429,
      "young": 5430,
      "yoga": 5431,
      "wol": 5432,
      "gamma": 5433,
      "johns": 5434,
      "pines": 5435,
      "yager": 5436,
      "browne": 5437,
      "jevo": 5438,
      "malcol": 5439,
      "palm": 5440,
      "1985": 5441,
      "1988": 5442,
      "mini": 5443,
      "freud": 5444,
      "freeman": 5445,
      "stand": 5446,
      "wikile": 5447,
      "agnes": 5448,
      "hopkins": 5449,
      "prize": 5450,
      "jimmy": 5451,
      "palestin": 5452,
      "stoc": 5453,
      "space": 5454,
      "helen": 5455,
      "ematica": 5456,
      "milimet": 5457,
      "polymer": 5458,
      "jacqu": 5459,
      "broadmoor": 5460,
      "jason": 5461,
      "sioux": 5462,
      "project": 5463,
      "scoop": 5464,
      "sebastian": 5465,
      "catadore": 5466,
      "mathematica": 5467,
      "jamaica": 5468,
      "aurora": 5469,
      "cochrane": 5470,
      "charlotte": 5471,
      "glucose": 5472,
      "sachusetts": 5473,
      "connecticut": 5474,
      "libya": 5475,
      "netflix": 5476,
      "malcolm": 5477,
      "63": 5478,
      "71": 5479,
      "7000": 5480,
      "750": 5481,
      "83": 5482,
      "bet": 5483,
      "blin": 5484,
      "cr": 5485,
      "cúc": 5486,
      "cỏi": 5487,
      "cồng": 5488,
      "cặn": 5489,
      "cse": 5490,
      "clon": 5491,
      "dot": 5492,
      "dằn": 5493,
      "ebay": 5494,
      "egal": 5495,
      "fin": 5496,
      "get": 5497,
      "hỡ": 5498,
      "jk": 5499,
      "kb": 5500,
      "kra": 5501,
      "kes": 5502,
      "koko": 5503,
      "lt": 5504,
      "lư": 5505,
      "lở": 5506,
      "mw": 5507,
      "mồm": 5508,
      "mcc": 5509,
      "nal": 5510,
      "oà": 5511,
      "plas": 5512,
      "qúi": 5513,
      "rầu": 5514,
      "rầm": 5515,
      "rel": 5516,
      "sb": 5517,
      "sán": 5518,
      "sty": 5519,
      "swan": 5520,
      "tts": 5521,
      "túm": 5522,
      "ue": 5523,
      "uri": 5524,
      "vạt": 5525,
      "vượn": 5526,
      "xter": 5527,
      "zar": 5528,
      "ça": 5529,
      "đễ": 5530,
      "đần": 5531,
      "đước": 5532,
      "ngõ": 5533,
      "ngóc": 5534,
      "ngòi": 5535,
      "ngợm": 5536,
      "nhan": 5537,
      "chk": 5538,
      "chy": 5539,
      "chập": 5540,
      "chánh": 5541,
      "chèo": 5542,
      "chèn": 5543,
      "chót": 5544,
      "thây": 5545,
      "trơ": 5546,
      "trướng": 5547,
      "phy": 5548,
      "phiệt": 5549,
      "phua": 5550,
      "quác": 5551,
      "quặng": 5552,
      "gio": 5553,
      "giỏ": 5554,
      "giời": 5555,
      "tami": 5556,
      "nành": 5557,
      "rado": 5558,
      "rani": 5559,
      "ratops": 5560,
      "mào": 5561,
      "hoff": 5562,
      "incra": 5563,
      "indiana": 5564,
      "loanh": 5565,
      "load": 5566,
      "ene": 5567,
      "luke": 5568,
      "tish": 5569,
      "arn": 5570,
      "viking": 5571,
      "phil": 5572,
      "rives": 5573,
      "bass": 5574,
      "bahamas": 5575,
      "baxter": 5576,
      "solo": 5577,
      "roça": 5578,
      "cow": 5579,
      "coun": 5580,
      "elvis": 5581,
      "lif": 5582,
      "libăng": 5583,
      "lisa": 5584,
      "life": 5585,
      "osama": 5586,
      "mid": 5587,
      "suyễn": 5588,
      "hio": 5589,
      "1993": 5590,
      "1991": 5591,
      "1940": 5592,
      "huck": 5593,
      "tedster": 5594,
      "goá": 5595,
      "bian": 5596,
      "mea": 5597,
      "marc": 5598,
      "dura": 5599,
      "ruộng": 5600,
      "camp": 5601,
      "carroça": 5602,
      "bever": 5603,
      "sean": 5604,
      "robots": 5605,
      "ping": 5606,
      "picas": 5607,
      "pol": 5608,
      "poli": 5609,
      "gabri": 5610,
      "voyager": 5611,
      "bonnet": 5612,
      "mond": 5613,
      "monter": 5614,
      "fear": 5615,
      "hey": 5616,
      "brad": 5617,
      "vani": 5618,
      "danny": 5619,
      "byte": 5620,
      "ders": 5621,
      "gue": 5622,
      "proton": 5623,
      "trogen": 5624,
      "pshire": 5625,
      "llis": 5626,
      "jamie": 5627,
      "wartz": 5628,
      "cyn": 5629,
      "minder": 5630,
      "free": 5631,
      "wales": 5632,
      "walmart": 5633,
      "central": 5634,
      "vinci": 5635,
      "corti": 5636,
      "karen": 5637,
      "transi": 5638,
      "aks": 5639,
      "pascal": 5640,
      "maratông": 5641,
      "1957": 5642,
      "stream": 5643,
      "oxide": 5644,
      "mp3": 5645,
      "mpson": 5646,
      "grant": 5647,
      "barak": 5648,
      "brenda": 5649,
      "gordon": 5650,
      "malaysia": 5651,
      "ixaren": 5652,
      "cooper": 5653,
      "cloud": 5654,
      "russell": 5655,
      "sseus": 5656,
      "robinson": 5657,
      "triceratops": 5658,
      "amanda": 5659,
      "enzyme": 5660,
      "sarajevo": 5661,
      "papua": 5662,
      "heather": 5663,
      "motor": 5664,
      "odysseus": 5665,
      "zipcar": 5666,
      "foundation": 5667,
      "mahatma": 5668,
      "gapminder": 5669,
      "australia": 5670,
      "biosphere": 5671,
      "stockholm": 5672,
      "tamiflu": 5673,
      "beverly": 5674,
      "picasso": 5675,
      "gabriel": 5676,
      "365": 5677,
      "5n1": 5678,
      "8000": 5679,
      "aah": 5680,
      "achill": 5681,
      "bau": 5682,
      "bừa": 5683,
      "borg": 5684,
      "bbc": 5685,
      "clair": 5686,
      "dí": 5687,
      "dó": 5688,
      "dson": 5689,
      "ee": 5690,
      "elo": 5691,
      "eeg": 5692,
      "flick": 5693,
      "gỉ": 5694,
      "gho": 5695,
      "ganh": 5696,
      "gãi": 5697,
      "gru": 5698,
      "há": 5699,
      "hũ": 5700,
      "h5n1": 5701,
      "ib": 5702,
      "jai": 5703,
      "kang": 5704,
      "kri": 5705,
      "llo": 5706,
      "lộc": 5707,
      "lõm": 5708,
      "mùng": 5709,
      "miến": 5710,
      "nỉ": 5711,
      "nya": 5712,
      "old": 5713,
      "owen": 5714,
      "ohio": 5715,
      "plan": 5716,
      "pine": 5717,
      "rd": 5718,
      "rùng": 5719,
      "rữa": 5720,
      "rót": 5721,
      "sé": 5722,
      "sò": 5723,
      "siết": 5724,
      "schu": 5725,
      "sting": 5726,
      "tợn": 5727,
      "uc": 5728,
      "vể": 5729,
      "vồng": 5730,
      "vớt": 5731,
      "work": 5732,
      "xê": 5733,
      "ôc": 5734,
      "đă": 5735,
      "ẻm": 5736,
      "ỡn": 5737,
      "ngỡ": 5738,
      "ngượng": 5739,
      "nhối": 5740,
      "nhen": 5741,
      "nhót": 5742,
      "chần": 5743,
      "chũng": 5744,
      "chưng": 5745,
      "chester": 5746,
      "thềm": 5747,
      "trũng": 5748,
      "trini": 5749,
      "phon": 5750,
      "phước": 5751,
      "quây": 5752,
      "git": 5753,
      "rama": 5754,
      "ott": 5755,
      "anton": 5756,
      "anna": 5757,
      "ona": 5758,
      "năn": 5759,
      "ins": 5760,
      "toba": 5761,
      "toyo": 5762,
      "token": 5763,
      "amino": 5764,
      "dom": 5765,
      "enture": 5766,
      "lum": 5767,
      "lux": 5768,
      "lulo": 5769,
      "tunes": 5770,
      "xua": 5771,
      "côla": 5772,
      "ial": 5773,
      "vik": 5774,
      "vio": 5775,
      "rica": 5776,
      "riley": 5777,
      "bagh": 5778,
      "esome": 5779,
      "estrogen": 5780,
      "but": 5781,
      "soc": 5782,
      "sovo": 5783,
      "roc": 5784,
      "roos": 5785,
      "teau": 5786,
      "thoạt": 5787,
      "colli": 5788,
      "cohen": 5789,
      "cocai": 5790,
      "chuồn": 5791,
      "leton": 5792,
      "light": 5793,
      "mix": 5794,
      "nguời": 5795,
      "101": 5796,
      "mubarak": 5797,
      "2015": 5798,
      "2014": 5799,
      "sie": 5800,
      "sim": 5801,
      "sisy": 5802,
      "casey": 5803,
      "1920": 5804,
      "1918": 5805,
      "1965": 5806,
      "thưc": 5807,
      "kit": 5808,
      "reu": 5809,
      "rett": 5810,
      "sur": 5811,
      "bits": 5812,
      "niko": 5813,
      "meis": 5814,
      "nhuần": 5815,
      "naj": 5816,
      "sag": 5817,
      "linus": 5818,
      "canyon": 5819,
      "peace": 5820,
      "rufus": 5821,
      "campu": 5822,
      "kosovo": 5823,
      "beta": 5824,
      "beep": 5825,
      "mania": 5826,
      "401": 5827,
      "molly": 5828,
      "pilot": 5829,
      "pitts": 5830,
      "imf": 5831,
      "nom": 5832,
      "nou": 5833,
      "2500": 5834,
      "khứu": 5835,
      "hampshire": 5836,
      "heh": 5837,
      "heal": 5838,
      "ellen": 5839,
      "graffi": 5840,
      "deniso": 5841,
      "bloom": 5842,
      "judy": 5843,
      "pari": 5844,
      "troy": 5845,
      "citi": 5846,
      "geoff": 5847,
      "bare": 5848,
      "brother": 5849,
      "llian": 5850,
      "massachusetts": 5851,
      "lashy": 5852,
      "darpa": 5853,
      "window": 5854,
      "1983": 5855,
      "georgia": 5856,
      "worth": 5857,
      "mmm": 5858,
      "jerem": 5859,
      "crates": 5860,
      "tree": 5861,
      "nều": 5862,
      "sôcôla": 5863,
      "1973": 5864,
      "1979": 5865,
      "mellon": 5866,
      "gayla": 5867,
      "hooc": 5868,
      "kềnh": 5869,
      "hunter": 5870,
      "dolph": 5871,
      "nhím": 5872,
      "awesome": 5873,
      "brand": 5874,
      "vãnh": 5875,
      "splashy": 5876,
      "rough": 5877,
      "cocktail": 5878,
      "helium": 5879,
      "illinois": 5880,
      "friedman": 5881,
      "hitler": 5882,
      "critic": 5883,
      "prôtein": 5884,
      "naomi": 5885,
      "reddit": 5886,
      "ottoman": 5887,
      "accenture": 5888,
      "hirsh": 5889,
      "bilbao": 5890,
      "rơm": 5891,
      "tunisia": 5892,
      "hiroshima": 5893,
      "marshall": 5894,
      "guardian": 5895,
      "sergey": 5896,
      "wikileaks": 5897,
      "hỡi": 5898,
      "monterey": 5899,
      "cynthia": 5900,
      "cortisol": 5901,
      "flickr": 5902,
      "toyota": 5903,
      "campuchia": 5904,
      "pittsburgh": 5905,
      "graffiti": 5906,
      "88": 5907,
      "92": 5908,
      "abc": 5909,
      "bli": 5910,
      "bổn": 5911,
      "bặm": 5912,
      "bùa": 5913,
      "cphi": 5914,
      "cro": 5915,
      "cil": 5916,
      "dơ": 5917,
      "dặt": 5918,
      "flash": 5919,
      "gy": 5920,
      "gang": 5921,
      "gàng": 5922,
      "gard": 5923,
      "gger": 5924,
      "gợn": 5925,
      "hạc": 5926,
      "hốt": 5927,
      "héo": 5928,
      "hòm": 5929,
      "hẻm": 5930,
      "ick": 5931,
      "ill": 5932,
      "kw": 5933,
      "kong": 5934,
      "kle": 5935,
      "kris": 5936,
      "kley": 5937,
      "lg": 5938,
      "lẹ": 5939,
      "lồi": 5940,
      "meo": 5941,
      "mam": 5942,
      "mắng": 5943,
      "o2": 5944,
      "pran": 5945,
      "pad": 5946,
      "rl": 5947,
      "rên": 5948,
      "rne": 5949,
      "rèm": 5950,
      "rợn": 5951,
      "sững": 5952,
      "sầu": 5953,
      "sồi": 5954,
      "sọc": 5955,
      "shu": 5956,
      "sas": 5957,
      "ska": 5958,
      "sburg": 5959,
      "snow": 5960,
      "tg": 5961,
      "tney": 5962,
      "uý": 5963,
      "uld": 5964,
      "vói": 5965,
      "veland": 5966,
      "vẹt": 5967,
      "wy": 5968,
      "xiết": 5969,
      "yum": 5970,
      "zam": 5971,
      "đên": 5972,
      "đay": 5973,
      "ều": 5974,
      "ổng": 5975,
      "ngầu": 5976,
      "ngạt": 5977,
      "nhàn": 5978,
      "nhầy": 5979,
      "nháp": 5980,
      "nhúm": 5981,
      "nhõm": 5982,
      "chs": 5983,
      "chừ": 5984,
      "chuộc": 5985,
      "chừa": 5986,
      "chap": 5987,
      "chry": 5988,
      "chém": 5989,
      "thòi": 5990,
      "trờ": 5991,
      "trau": 5992,
      "trăn": 5993,
      "tròng": 5994,
      "khơ": 5995,
      "khong": 5996,
      "khắt": 5997,
      "khali": 5998,
      "phỉ": 5999,
      "photon": 6000,
      "gill": 6001,
      "ngham": 6002,
      "uyễn": 6003,
      "ragu": 6004,
      "rald": 6005,
      "choa": 6006,
      "hol": 6007,
      "home": 6008,
      "india": 6009,
      "nghĩnh": 6010,
      "phách": 6011,
      "tol": 6012,
      "toái": 6013,
      "emmanuel": 6014,
      "ames": 6015,
      "distan": 6016,
      "lub": 6017,
      "mách": 6018,
      "tuc": 6019,
      "tum": 6020,
      "tuột": 6021,
      "tide": 6022,
      "ring": 6023,
      "rita": 6024,
      "rian": 6025,
      "riversi": 6026,
      "phụng": 6027,
      "bat": 6028,
      "eston": 6029,
      "lah": 6030,
      "laho": 6031,
      "lake": 6032,
      "laze": 6033,
      "ladus": 6034,
      "sofa": 6035,
      "rov": 6036,
      "roma": 6037,
      "roman": 6038,
      "dah": 6039,
      "dagas": 6040,
      "davis": 6041,
      "michoa": 6042,
      "vụt": 6043,
      "terence": 6044,
      "hidro": 6045,
      "sig": 6046,
      "mack": 6047,
      "madagas": 6048,
      "1949": 6049,
      "reka": 6050,
      "bandura": 6051,
      "good": 6052,
      "bili": 6053,
      "biêt": 6054,
      "bou": 6055,
      "usda": 6056,
      "nic": 6057,
      "nitha": 6058,
      "haas": 6059,
      "dez": 6060,
      "wii": 6061,
      "wired": 6062,
      "đuợc": 6063,
      "linda": 6064,
      "webcam": 6065,
      "curi": 6066,
      "bei": 6067,
      "becca": 6068,
      "mani": 6069,
      "luyến": 6070,
      "1858": 6071,
      "mou": 6072,
      "shel": 6073,
      "trich": 6074,
      "gata": 6075,
      "ryn": 6076,
      "huyện": 6077,
      "hamlet": 6078,
      "monkey": 6079,
      "ganistan": 6080,
      "kath": 6081,
      "kabul": 6082,
      "kentu": 6083,
      "afganistan": 6084,
      "main": 6085,
      "byrne": 6086,
      "harris": 6087,
      "bloop": 6088,
      "juan": 6089,
      "perry": 6090,
      "venter": 6091,
      "civic": 6092,
      "barbara": 6093,
      "tenberg": 6094,
      "paula": 6095,
      "wind": 6096,
      "complex": 6097,
      "1982": 6098,
      "greg": 6099,
      "icillin": 6100,
      "minnes": 6101,
      "quez": 6102,
      "josh": 6103,
      "ners": 6104,
      "saman": 6105,
      "eureka": 6106,
      "actor": 6107,
      "serra": 6108,
      "penicillin": 6109,
      "valen": 6110,
      "pants": 6111,
      "senegal": 6112,
      "ful": 6113,
      "morgan": 6114,
      "sinclair": 6115,
      "souri": 6116,
      "1962": 6117,
      "colorado": 6118,
      "tweets": 6119,
      "grove": 6120,
      "olympics": 6121,
      "dollars": 6122,
      "exxon": 6123,
      "enceladus": 6124,
      "blackberry": 6125,
      "england": 6126,
      "america": 6127,
      "mozambi": 6128,
      "cern": 6129,
      "bonobo": 6130,
      "cookie": 6131,
      "evelt": 6132,
      "evelyn": 6133,
      "series": 6134,
      "hormones": 6135,
      "school": 6136,
      "meyer": 6137,
      "malawi": 6138,
      "ukraine": 6139,
      "faiza": 6140,
      "science": 6141,
      "galileo": 6142,
      "muddin": 6143,
      "mafia": 6144,
      "jacques": 6145,
      "clonie": 6146,
      "transition": 6147,
      "roosevelt": 6148,
      "najmuddin": 6149,
      "barefoot": 6150,
      "windows": 6151,
      "jeremy": 6152,
      "klein": 6153,
      "riverside": 6154,
      "minnesota": 6155,
      "mozambique": 6156,
      "1200": 6157,
      "170": 6158,
      "62": 6159,
      "650": 6160,
      "73": 6161,
      "bk": 6162,
      "bung": 6163,
      "blair": 6164,
      "cking": 6165,
      "crick": 6166,
      "dong": 6167,
      "dle": 6168,
      "dừa": 6169,
      "eth": 6170,
      "eck": 6171,
      "fos": 6172,
      "gv": 6173,
      "gù": 6174,
      "ges": 6175,
      "gẫu": 6176,
      "h2": 6177,
      "hê": 6178,
      "hột": 6179,
      "hiều": 6180,
      "hiền": 6181,
      "hard": 6182,
      "hùm": 6183,
      "ich": 6184,
      "iro": 6185,
      "jans": 6186,
      "ksh": 6187,
      "kno": 6188,
      "kwa": 6189,
      "knee": 6190,
      "lb": 6191,
      "lổ": 6192,
      "lỏi": 6193,
      "lảng": 6194,
      "lóc": 6195,
      "lốp": 6196,
      "lún": 6197,
      "lhc": 6198,
      "mó": 6199,
      "máng": 6200,
      "mòng": 6201,
      "mậu": 6202,
      "ns": 6203,
      "niết": 6204,
      "nương": 6205,
      "nẹp": 6206,
      "nsa": 6207,
      "nders": 6208,
      "pet": 6209,
      "rạn": 6210,
      "rầy": 6211,
      "slo": 6212,
      "sệt": 6213,
      "sap": 6214,
      "sson": 6215,
      "seli": 6216,
      "slow": 6217,
      "slee": 6218,
      "smart": 6219,
      "tw": 6220,
      "tte": 6221,
      "tằm": 6222,
      "uất": 6223,
      "vò": 6224,
      "vet": 6225,
      "vali": 6226,
      "xdr": 6227,
      "đơ": 6228,
      "đờ": 6229,
      "đái": 6230,
      "ĩu": 6231,
      "ngỏ": 6232,
      "ngùng": 6233,
      "ngáp": 6234,
      "nhả": 6235,
      "nhẹn": 6236,
      "nhuyễn": 6237,
      "chường": 6238,
      "chồi": 6239,
      "chĩa": 6240,
      "chnya": 6241,
      "thớ": 6242,
      "thẩn": 6243,
      "that": 6244,
      "trặc": 6245,
      "trạch": 6246,
      "trino": 6247,
      "khét": 6248,
      "phăng": 6249,
      "phus": 6250,
      "quĩ": 6251,
      "gif": 6252,
      "giỡn": 6253,
      "gillian": 6254,
      "table": 6255,
      "tacre": 6256,
      "nghiến": 6257,
      "nghẹn": 6258,
      "cácbon": 6259,
      "uyển": 6260,
      "đãng": 6261,
      "rad": 6262,
      "ote": 6263,
      "chopin": 6264,
      "onic": 6265,
      "consin": 6266,
      "too": 6267,
      "toro": 6268,
      "toby": 6269,
      "thun": 6270,
      "saunders": 6271,
      "amen": 6272,
      "ers": 6273,
      "dolly": 6274,
      "enzim": 6275,
      "dic": 6276,
      "luỵ": 6277,
      "luza": 6278,
      "luria": 6279,
      "lucy": 6280,
      "tulu": 6281,
      "tune": 6282,
      "tium": 6283,
      "xui": 6284,
      "vivian": 6285,
      "ridge": 6286,
      "alis": 6287,
      "algeria": 6288,
      "altos": 6289,
      "lady": 6290,
      "coke": 6291,
      "organ": 6292,
      "lett": 6293,
      "libby": 6294,
      "mingham": 6295,
      "apo": 6296,
      "casa": 6297,
      "1948": 6298,
      "husse": 6299,
      "rebecca": 6300,
      "suit": 6301,
      "trụi": 6302,
      "goi": 6303,
      "gowan": 6304,
      "bour": 6305,
      "hydera": 6306,
      "nih": 6307,
      "niêm": 6308,
      "nica": 6309,
      "deep": 6310,
      "randi": 6311,
      "meg": 6312,
      "meen": 6313,
      "adren": 6314,
      "mardu": 6315,
      "marie": 6316,
      "wifi": 6317,
      "duoli": 6318,
      "johan": 6319,
      "pear": 6320,
      "sony": 6321,
      "cargill": 6322,
      "thụt": 6323,
      "fortune": 6324,
      "185": 6325,
      "dĩa": 6326,
      "mous": 6327,
      "pic": 6328,
      "vợt": 6329,
      "jaw": 6330,
      "vada": 6331,
      "pres": 6332,
      "gers": 6333,
      "istanbul": 6334,
      "your": 6335,
      "donna": 6336,
      "kaf": 6337,
      "kaluza": 6338,
      "feyn": 6339,
      "ineering": 6340,
      "chechnya": 6341,
      "harri": 6342,
      "erik": 6343,
      "stal": 6344,
      "ffel": 6345,
      "sydney": 6346,
      "master": 6347,
      "tennis": 6348,
      "zetas": 6349,
      "ware": 6350,
      "darfur": 6351,
      "pauling": 6352,
      "tions": 6353,
      "1987": 6354,
      "shaw": 6355,
      "freder": 6356,
      "walk": 6357,
      "centim": 6358,
      "mmy": 6359,
      "collins": 6360,
      "desk": 6361,
      "ferris": 6362,
      "blah": 6363,
      "1978": 6364,
      "janine": 6365,
      "salad": 6366,
      "whitacre": 6367,
      "csf": 6368,
      "universi": 6369,
      "1968": 6370,
      "neumann": 6371,
      "farmer": 6372,
      "jesse": 6373,
      "jessica": 6374,
      "brooks": 6375,
      "cdc": 6376,
      "lụi": 6377,
      "engineering": 6378,
      "houston": 6379,
      "murdo": 6380,
      "eiffel": 6381,
      "missouri": 6382,
      "isabel": 6383,
      "sheryl": 6384,
      "robicse": 6385,
      "shirley": 6386,
      "silver": 6387,
      "pheromones": 6388,
      "cotton": 6389,
      "broadway": 6390,
      "cleveland": 6391,
      "budrus": 6392,
      "prego": 6393,
      "caroline": 6394,
      "reagan": 6395,
      "hannah": 6396,
      "himalayas": 6397,
      "meerkat": 6398,
      "hlv": 6399,
      "aviv": 6400,
      "saddam": 6401,
      "sheila": 6402,
      "glad": 6403,
      "christian": 6404,
      "kaplan": 6405,
      "cassini": 6406,
      "baghdad": 6407,
      "sisyphus": 6408,
      "meister": 6409,
      "sagmeister": 6410,
      "denisovan": 6411,
      "hirshhorn": 6412,
      "estonia": 6413,
      "madagascar": 6414,
      "kentucky": 6415,
      "samantha": 6416,
      "kshmi": 6417,
      "hussein": 6418,
      "gowanus": 6419,
      "hyderabad": 6420,
      "adrenal": 6421,
      "marduk": 6422,
      "duolingo": 6423,
      "university": 6424,
      "robicsek": 6425,
      "61": 6426,
      "747": 6427,
      "87": 6428,
      "ach": 6429,
      "buy": 6430,
      "bái": 6431,
      "bêu": 6432,
      "bỏi": 6433,
      "bừng": 6434,
      "bứt": 6435,
      "cò": 6436,
      "ctor": 6437,
      "dột": 6438,
      "dật": 6439,
      "dìm": 6440,
      "dỏm": 6441,
      "eas": 6442,
      "ethan": 6443,
      "eames": 6444,
      "fb": 6445,
      "fal": 6446,
      "flow": 6447,
      "fmri": 6448,
      "guy": 6449,
      "gàn": 6450,
      "gẫy": 6451,
      "glen": 6452,
      "hd": 6453,
      "hq": 6454,
      "hắt": 6455,
      "hand": 6456,
      "hớt": 6457,
      "hừm": 6458,
      "iv": 6459,
      "ida": 6460,
      "ima": 6461,
      "itunes": 6462,
      "jm": 6463,
      "js": 6464,
      "jy": 6465,
      "jin": 6466,
      "két": 6467,
      "kỉnh": 6468,
      "lả": 6469,
      "liếc": 6470,
      "lùn": 6471,
      "lhq": 6472,
      "mca": 6473,
      "nấy": 6474,
      "nĩa": 6475,
      "ow": 6476,
      "oan": 6477,
      "our": 6478,
      "pta": 6479,
      "pto": 6480,
      "pton": 6481,
      "ppi": 6482,
      "rs": 6483,
      "ròi": 6484,
      "rủa": 6485,
      "sá": 6486,
      "sỉ": 6487,
      "sài": 6488,
      "sặc": 6489,
      "squa": 6490,
      "ses": 6491,
      "smo": 6492,
      "sala": 6493,
      "spera": 6494,
      "tễ": 6495,
      "tuốt": 6496,
      "tót": 6497,
      "utah": 6498,
      "vs": 6499,
      "vảy": 6500,
      "vét": 6501,
      "vênh": 6502,
      "won": 6503,
      "whe": 6504,
      "xiếc": 6505,
      "yel": 6506,
      "yos": 6507,
      "zai": 6508,
      "đành": 6509,
      "ngấy": 6510,
      "ngàng": 6511,
      "ngứa": 6512,
      "ngạch": 6513,
      "nhãng": 6514,
      "nhòm": 6515,
      "nhât": 6516,
      "chê": 6517,
      "chal": 6518,
      "chand": 6519,
      "chửi": 6520,
      "chùi": 6521,
      "thự": 6522,
      "thàng": 6523,
      "thặng": 6524,
      "trề": 6525,
      "trành": 6526,
      "trồi": 6527,
      "trans": 6528,
      "khố": 6529,
      "kham": 6530,
      "phết": 6531,
      "phos": 6532,
      "quệ": 6533,
      "giũ": 6534,
      "giăng": 6535,
      "giấm": 6536,
      "giêng": 6537,
      "giùm": 6538,
      "tari": 6539,
      "nghê": 6540,
      "nghếch": 6541,
      "anor": 6542,
      "angelo": 6543,
      "aires": 6544,
      "aux": 6545,
      "aung": 6546,
      "augus": 6547,
      "tosh": 6548,
      "loid": 6549,
      "saul": 6550,
      "ame": 6551,
      "amon": 6552,
      "amin": 6553,
      "erbai": 6554,
      "dora": 6555,
      "enos": 6556,
      "enix": 6557,
      "dies": 6558,
      "dish": 6559,
      "quark": 6560,
      "tiju": 6561,
      "tist": 6562,
      "tigru": 6563,
      "hãn": 6564,
      "ark": 6565,
      "arms": 6566,
      "vila": 6567,
      "ngoạc": 6568,
      "phili": 6569,
      "alban": 6570,
      "alain": 6571,
      "alisa": 6572,
      "basi": 6573,
      "lagos": 6574,
      "larami": 6575,
      "buda": 6576,
      "buenos": 6577,
      "socola": 6578,
      "sophia": 6579,
      "roi": 6580,
      "tele": 6581,
      "cour": 6582,
      "costa": 6583,
      "chiêc": 6584,
      "nevada": 6585,
      "liz": 6586,
      "list": 6587,
      "mir": 6588,
      "ming": 6589,
      "mitra": 6590,
      "milli": 6591,
      "apar": 6592,
      "muội": 6593,
      "sir": 6594,
      "side": 6595,
      "simpson": 6596,
      "sippi": 6597,
      "cara": 6598,
      "cash": 6599,
      "1947": 6600,
      "hudson": 6601,
      "kid": 6602,
      "bank": 6603,
      "suu": 6604,
      "sugata": 6605,
      "goro": 6606,
      "chaz": 6607,
      "trợn": 6608,
      "biễu": 6609,
      "bionic": 6610,
      "nami": 6611,
      "borough": 6612,
      "asa": 6613,
      "nice": 6614,
      "nixon": 6615,
      "wey": 6616,
      "dea": 6617,
      "deen": 6618,
      "randolph": 6619,
      "thieu": 6620,
      "newcastle": 6621,
      "tone": 6622,
      "nata": 6623,
      "dum": 6624,
      "nhờn": 6625,
      "atlas": 6626,
      "etc": 6627,
      "etz": 6628,
      "sage": 6629,
      "joy": 6630,
      "jour": 6631,
      "jobs": 6632,
      "lind": 6633,
      "cardo": 6634,
      "carri": 6635,
      "seth": 6636,
      "bergen": 6637,
      "fords": 6638,
      "forbes": 6639,
      "orkut": 6640,
      "shna": 6641,
      "pie": 6642,
      "pounds": 6643,
      "gate": 6644,
      "gerald": 6645,
      "vold": 6646,
      "ronald": 6647,
      "eine": 6648,
      "mons": 6649,
      "mont": 6650,
      "càm": 6651,
      "illa": 6652,
      "pinker": 6653,
      "oney": 6654,
      "harvey": 6655,
      "gupta": 6656,
      "grass": 6657,
      "christ": 6658,
      "ahmed": 6659,
      "bright": 6660,
      "ment": 6661,
      "trolux": 6662,
      "barry": 6663,
      "nhoà": 6664,
      "slick": 6665,
      "dyson": 6666,
      "hany": 6667,
      "hansen": 6668,
      "lẻo": 6669,
      "maslow": 6670,
      "paulo": 6671,
      "kyi": 6672,
      "gregor": 6673,
      "shah": 6674,
      "shack": 6675,
      "four": 6676,
      "mcgon": 6677,
      "mcchry": 6678,
      "microphone": 6679,
      "georgetown": 6680,
      "cents": 6681,
      "alabama": 6682,
      "cini": 6683,
      "phoenix": 6684,
      "inawa": 6685,
      "myhr": 6686,
      "tzmann": 6687,
      "kuwai": 6688,
      "petersburg": 6689,
      "here": 6690,
      "valley": 6691,
      "1974": 6692,
      "1976": 6693,
      "xỉn": 6694,
      "salin": 6695,
      "sally": 6696,
      "viagra": 6697,
      "schwartz": 6698,
      "nish": 6699,
      "vaccin": 6700,
      "amyloid": 6701,
      "celine": 6702,
      "matthieu": 6703,
      "victor": 6704,
      "1953": 6705,
      "sandy": 6706,
      "nhịn": 6707,
      "botswan": 6708,
      "turbo": 6709,
      "friend": 6710,
      "hadron": 6711,
      "sunni": 6712,
      "sunphua": 6713,
      "moscow": 6714,
      "brent": 6715,
      "bluegrass": 6716,
      "philippines": 6717,
      "nicole": 6718,
      "channel": 6719,
      "kant": 6720,
      "missis": 6721,
      "bitco": 6722,
      "ddt": 6723,
      "bolt": 6724,
      "boltzmann": 6725,
      "jordans": 6726,
      "gluten": 6727,
      "airstream": 6728,
      "rossy": 6729,
      "arab": 6730,
      "arabia": 6731,
      "hills": 6732,
      "beatles": 6733,
      "jarrett": 6734,
      "www": 6735,
      "hasan": 6736,
      "kurdistan": 6737,
      "hindu": 6738,
      "enzym": 6739,
      "titanic": 6740,
      "skid": 6741,
      "juliet": 6742,
      "allende": 6743,
      "alberta": 6744,
      "alberto": 6745,
      "azerbai": 6746,
      "spring": 6747,
      "eleanor": 6748,
      "hurtigru": 6749,
      "android": 6750,
      "wingsuit": 6751,
      "economi": 6752,
      "ariely": 6753,
      "patrick": 6754,
      "plasma": 6755,
      "midwest": 6756,
      "owens": 6757,
      "séc": 6758,
      "trinidad": 6759,
      "tobago": 6760,
      "collider": 6761,
      "nikola": 6762,
      "pranav": 6763,
      "zambia": 6764,
      "tucson": 6765,
      "bkt": 6766,
      "giffords": 6767,
      "torosaurus": 6768,
      "feynman": 6769,
      "gladwell": 6770,
      "armstrong": 6771,
      "laramie": 6772,
      "mcchrystal": 6773,
      "myhrvold": 6774,
      "kuwait": 6775,
      "mississippi": 6776,
      "azerbaijan": 6777,
      "hurtigruten": 6778,
      "economist": 6779,
      "1100": 6780,
      "1kg": 6781,
      "2100": 6782,
      "3g": 6783,
      "agra": 6784,
      "agar": 6785,
      "bạ": 6786,
      "bẽ": 6787,
      "bợ": 6788,
      "búp": 6789,
      "bít": 6790,
      "bợm": 6791,
      "cter": 6792,
      "df": 6793,
      "dả": 6794,
      "dể": 6795,
      "dộng": 6796,
      "dre": 6797,
      "dãn": 6798,
      "dka": 6799,
      "dhara": 6800,
      "fl": 6801,
      "fải": 6802,
      "gr": 6803,
      "gw": 6804,
      "gừng": 6805,
      "gli": 6806,
      "gman": 6807,
      "gell": 6808,
      "hz": 6809,
      "hơ": 6810,
      "hủ": 6811,
      "huyên": 6812,
      "jung": 6813,
      "jal": 6814,
      "jad": 6815,
      "kro": 6816,
      "kru": 6817,
      "knight": 6818,
      "ln": 6819,
      "lz": 6820,
      "lới": 6821,
      "lọi": 6822,
      "lăm": 6823,
      "lùa": 6824,
      "lìa": 6825,
      "mè": 6826,
      "mé": 6827,
      "mem": 6828,
      "múc": 6829,
      "mẫn": 6830,
      "moto": 6831,
      "nê": 6832,
      "nch": 6833,
      "nắn": 6834,
      "nít": 6835,
      "nớt": 6836,
      "nino": 6837,
      "oso": 6838,
      "pl": 6839,
      "peri": 6840,
      "rể": 6841,
      "ruy": 6842,
      "rât": 6843,
      "remi": 6844,
      "sấy": 6845,
      "sâm": 6846,
      "sla": 6847,
      "stra": 6848,
      "sni": 6849,
      "sọt": 6850,
      "swa": 6851,
      "sina": 6852,
      "skey": 6853,
      "tq": 6854,
      "tã": 6855,
      "tong": 6856,
      "tết": 6857,
      "táng": 6858,
      "tuối": 6859,
      "tuốc": 6860,
      "tẹo": 6861,
      "umar": 6862,
      "usain": 6863,
      "vê": 6864,
      "vơi": 6865,
      "vữa": 6866,
      "vừng": 6867,
      "wong": 6868,
      "wel": 6869,
      "xù": 6870,
      "xới": 6871,
      "xửa": 6872,
      "xẻo": 6873,
      "yd": 6874,
      "yama": 6875,
      "znet": 6876,
      "zka": 6877,
      "ôxy": 6878,
      "õng": 6879,
      "đh": 6880,
      "ễm": 6881,
      "ngấu": 6882,
      "ngáy": 6883,
      "ngỗng": 6884,
      "nhe": 6885,
      "nhằng": 6886,
      "nheo": 6887,
      "nhái": 6888,
      "nhám": 6889,
      "chong": 6890,
      "cham": 6891,
      "chầm": 6892,
      "chuốt": 6893,
      "chòi": 6894,
      "cheri": 6895,
      "chòm": 6896,
      "thò": 6897,
      "them": 6898,
      "thro": 6899,
      "thali": 6900,
      "thât": 6901,
      "trum": 6902,
      "khít": 6903,
      "phầm": 6904,
      "phẩu": 6905,
      "phony": 6906,
      "quậy": 6907,
      "cóng": 6908,
      "giũa": 6909,
      "tata": 6910,
      "tate": 6911,
      "nghén": 6912,
      "nghẹt": 6913,
      "otta": 6914,
      "chon": 6915,
      "cholester": 6916,
      "anan": 6917,
      "annie": 6918,
      "angela": 6919,
      "cảu": 6920,
      "hono": 6921,
      "homeo": 6922,
      "insta": 6923,
      "insky": 6924,
      "----": 6925,
      "toan": 6926,
      "toát": 6927,
      "loát": 6928,
      "locks": 6929,
      "khoét": 6930,
      "thus": 6931,
      "quyện": 6932,
      "ery": 6933,
      "erto": 6934,
      "dog": 6935,
      "doy": 6936,
      "enna": 6937,
      "diy": 6938,
      "diamon": 6939,
      "dilocks": 6940,
      "lulu": 6941,
      "luton": 6942,
      "tul": 6943,
      "til": 6944,
      "tiba": 6945,
      "ares": 6946,
      "archi": 6947,
      "arno": 6948,
      "haidt": 6949,
      "ngoặc": 6950,
      "river": 6951,
      "allan": 6952,
      "allos": 6953,
      "base": 6954,
      "esa": 6955,
      "esha": 6956,
      "esther": 6957,
      "khuỷ": 6958,
      "lagen": 6959,
      "lakshmi": 6960,
      "sole": 6961,
      "rodri": 6962,
      "tee": 6963,
      "cous": 6964,
      "chuck": 6965,
      "ornish": 6966,
      "lea": 6967,
      "lever": 6968,
      "lion": 6969,
      "live": 6970,
      "lider": 6971,
      "miles": 6972,
      "app": 6973,
      "103": 6974,
      "mus": 6975,
      "terdam": 6976,
      "sian": 6977,
      "siri": 6978,
      "cabin": 6979,
      "makoko": 6980,
      "hum": 6981,
      "issa": 6982,
      "kite": 6983,
      "reg": 6984,
      "report": 6985,
      "tannica": 6986,
      "sue": 6987,
      "sulf": 6988,
      "suther": 6989,
      "cken": 6990,
      "gogh": 6991,
      "gould": 6992,
      "andes": 6993,
      "andre": 6994,
      "name": 6995,
      "boo": 6996,
      "boli": 6997,
      "boom": 6998,
      "ning": 6999,
      "hat": 7000,
      "hatz": 7001,
      "ded": 7002,
      "dep": 7003,
      "lance": 7004,
      "okinawa": 7005,
      "network": 7006,
      "cef": 7007,
      "marx": 7008,
      "marcus": 7009,
      "duke": 7010,
      "robbin": 7011,
      "roblog": 7012,
      "atm": 7013,
      "ats": 7014,
      "atkins": 7015,
      "sachs": 7016,
      "joa": 7017,
      "rumi": 7018,
      "rupi": 7019,
      "sonian": 7020,
      "koff": 7021,
      "cup": 7022,
      "chimbora": 7023,
      "sea": 7024,
      "sexy": 7025,
      "page": 7026,
      "patel": 7027,
      "moon": 7028,
      "moun": 7029,
      "shreddi": 7030,
      "pock": 7031,
      "pope": 7032,
      "polar": 7033,
      "steward": 7034,
      "vodka": 7035,
      "vegas": 7036,
      "rylic": 7037,
      "nova": 7038,
      "press": 7039,
      "25000": 7040,
      "monia": 7041,
      "money": 7042,
      "kaaba": 7043,
      "fez": 7044,
      "hep": 7045,
      "fave": 7046,
      "dance": 7047,
      "maine": 7048,
      "fire": 7049,
      "pink": 7050,
      "guay": 7051,
      "guồng": 7052,
      "gulf": 7053,
      "eridge": 7054,
      "yahoo": 7055,
      "percy": 7056,
      "ahmad": 7057,
      "brit": 7058,
      "british": 7059,
      "britannica": 7060,
      "stalin": 7061,
      "station": 7062,
      "barri": 7063,
      "barbie": 7064,
      "ffen": 7065,
      "aley": 7066,
      "nơron": 7067,
      "riaa": 7068,
      "microblog": 7069,
      "palin": 7070,
      "warner": 7071,
      "1981": 7072,
      "grey": 7073,
      "quix": 7074,
      "lauren": 7075,
      "ttle": 7076,
      "therine": 7077,
      "stern": 7078,
      "zzar": 7079,
      "colle": 7080,
      "collagen": 7081,
      "drori": 7082,
      "elah": 7083,
      "alexis": 7084,
      "acrylic": 7085,
      "transis": 7086,
      "lowstone": 7087,
      "kuznet": 7088,
      "hero": 7089,
      "rockef": 7090,
      "valdez": 7091,
      "igbo": 7092,
      "1972": 7093,
      "1977": 7094,
      "lynn": 7095,
      "ipcc": 7096,
      "greenville": 7097,
      "resnick": 7098,
      "whiskey": 7099,
      "full": 7100,
      "schel": 7101,
      "edison": 7102,
      "mello": 7103,
      "wisconsin": 7104,
      "shows": 7105,
      "unilever": 7106,
      "unicef": 7107,
      "licklider": 7108,
      "1969": 7109,
      "oliu": 7110,
      "zanne": 7111,
      "neutron": 7112,
      "popcorn": 7113,
      "zurich": 7114,
      "botton": 7115,
      "farm": 7116,
      "electrolux": 7117,
      "ngừoi": 7118,
      "earle": 7119,
      "stock": 7120,
      "mauri": 7121,
      "lemy": 7122,
      "engel": 7123,
      "mịt": 7124,
      "hippo": 7125,
      "nicolas": 7126,
      "calori": 7127,
      "coumarin": 7128,
      "atlantic": 7129,
      "nathaniel": 7130,
      "bruno": 7131,
      "shirky": 7132,
      "kamen": 7133,
      "cruz": 7134,
      "evans": 7135,
      "ninja": 7136,
      "bowl": 7137,
      "austin": 7138,
      "derar": 7139,
      "durga": 7140,
      "goldilocks": 7141,
      "carolyn": 7142,
      "karachi": 7143,
      "film": 7144,
      "rhode": 7145,
      "democra": 7146,
      "lựu": 7147,
      "phàm": 7148,
      "rotterdam": 7149,
      "font": 7150,
      "punk": 7151,
      "view": 7152,
      "guitar": 7153,
      "bernard": 7154,
      "mohamed": 7155,
      "buffett": 7156,
      "church": 7157,
      "mccain": 7158,
      "hoffman": 7159,
      "soczka": 7160,
      "rocco": 7161,
      "brothers": 7162,
      "snowden": 7163,
      "bility": 7164,
      "curitiba": 7165,
      "foster": 7166,
      "sleep": 7167,
      "thatcher": 7168,
      "ethanol": 7169,
      "ptolemy": 7170,
      "square": 7171,
      "yellowstone": 7172,
      "tijuana": 7173,
      "philips": 7174,
      "journal": 7175,
      "botswana": 7176,
      "krosoczka": 7177,
      "cholesterol": 7178,
      "honolulu": 7179,
      "instagram": 7180,
      "diamond": 7181,
      "allosphere": 7182,
      "sutherland": 7183,
      "robbins": 7184,
      "chimborazo": 7185,
      "shreddies": 7186,
      "transistor": 7187,
      "rockefeller": 7188,
      "03": 7189,
      "09": 7190,
      "2d": 7191,
      "220": 7192,
      "230": 7193,
      "51": 7194,
      "9000": 7195,
      "adi": 7196,
      "ache": 7197,
      "bớ": 7198,
      "bấp": 7199,
      "búng": 7200,
      "bồng": 7201,
      "bèn": 7202,
      "bard": 7203,
      "bris": 7204,
      "best": 7205,
      "bala": 7206,
      "càn": 7207,
      "cto": 7208,
      "còng": 7209,
      "cẳng": 7210,
      "cúp": 7211,
      "csi": 7212,
      "cuốc": 7213,
      "cằm": 7214,
      "cript": 7215,
      "db": 7216,
      "diệp": 7217,
      "dãi": 7218,
      "dry": 7219,
      "drew": 7220,
      "dìu": 7221,
      "ea": 7222,
      "edu": 7223,
      "epo": 7224,
      "eing": 7225,
      "ebert": 7226,
      "ecua": 7227,
      "fro": 7228,
      "fly": 7229,
      "fat": 7230,
      "fford": 7231,
      "gn": 7232,
      "gí": 7233,
      "gở": 7234,
      "gột": 7235,
      "gle": 7236,
      "gắm": 7237,
      "g20": 7238,
      "gọt": 7239,
      "gall": 7240,
      "gner": 7241,
      "gươm": 7242,
      "hấn": 7243,
      "hói": 7244,
      "hợt": 7245,
      "ita": 7246,
      "ien": 7247,
      "ibu": 7248,
      "ite": 7249,
      "iki": 7250,
      "ital": 7251,
      "igal": 7252,
      "jun": 7253,
      "kon": 7254,
      "kai": 7255,
      "kung": 7256,
      "kun": 7257,
      "kum": 7258,
      "lé": 7259,
      "lữ": 7260,
      "lặt": 7261,
      "lton": 7262,
      "lươn": 7263,
      "m2": 7264,
      "mú": 7265,
      "mẩn": 7266,
      "mẫm": 7267,
      "mụn": 7268,
      "nần": 7269,
      "nức": 7270,
      "nus": 7271,
      "nòi": 7272,
      "nẻo": 7273,
      "nina": 7274,
      "nrk": 7275,
      "ov": 7276,
      "och": 7277,
      "ocs": 7278,
      "pis": 7279,
      "pus": 7280,
      "psa": 7281,
      "plin": 7282,
      "rt": 7283,
      "rọc": 7284,
      "rca": 7285,
      "sho": 7286,
      "seo": 7287,
      "sảng": 7288,
      "sầm": 7289,
      "sào": 7290,
      "sard": 7291,
      "sby": 7292,
      "tầu": 7293,
      "tơi": 7294,
      "tìn": 7295,
      "tct": 7296,
      "tât": 7297,
      "ui": 7298,
      "uru": 7299,
      "uit": 7300,
      "vos": 7301,
      "vre": 7302,
      "wler": 7303,
      "wln": 7304,
      "xt": 7305,
      "xỏ": 7306,
      "xiên": 7307,
      "xóc": 7308,
      "yr": 7309,
      "yay": 7310,
      "yao": 7311,
      "yard": 7312,
      "zap": 7313,
      "zwe": 7314,
      "zig": 7315,
      "àm": 7316,
      "êin": 7317,
      "íu": 7318,
      "đác": 7319,
      "đung": 7320,
      "đít": 7321,
      "ngậm": 7322,
      "nhỡ": 7323,
      "nhừng": 7324,
      "nhậm": 7325,
      "nhói": 7326,
      "chin": 7327,
      "chấu": 7328,
      "chạc": 7329,
      "cháo": 7330,
      "china": 7331,
      "chùn": 7332,
      "thâu": 7333,
      "thán": 7334,
      "thảnh": 7335,
      "thớt": 7336,
      "trc": 7337,
      "trổ": 7338,
      "triền": 7339,
      "trus": 7340,
      "khẽ": 7341,
      "khải": 7342,
      "phất": 7343,
      "phiếm": 7344,
      "quai": 7345,
      "quest": 7346,
      "gin": 7347,
      "giu": 7348,
      "tango": 7349,
      "tamara": 7350,
      "tamil": 7351,
      "nài": 7352,
      "iềng": 7353,
      "rat": 7354,
      "radar": 7355,
      "radc": 7356,
      "choi": 7357,
      "hoc": 7358,
      "holo": 7359,
      "ono": 7360,
      "ons": 7361,
      "aicha": 7362,
      "auto": 7363,
      "audio": 7364,
      "inck": 7365,
      "inuit": 7366,
      "toon": 7367,
      "toxo": 7368,
      "loét": 7369,
      "loren": 7370,
      "ams": 7371,
      "erin": 7372,
      "eros": 7373,
      "dos": 7374,
      "dops": 7375,
      "enron": 7376,
      "dison": 7377,
      "dija": 7378,
      "luhan": 7379,
      "lunch": 7380,
      "turing": 7381,
      "tick": 7382,
      "tivo": 7383,
      "xuồng": 7384,
      "tuyền": 7385,
      "ars": 7386,
      "ving": 7387,
      "viet": 7388,
      "rip": 7389,
      "rit": 7390,
      "alto": 7391,
      "balo": 7392,
      "bage": 7393,
      "esta": 7394,
      "esco": 7395,
      "eski": 7396,
      "ghiếc": 7397,
      "buck": 7398,
      "buil": 7399,
      "sor": 7400,
      "sounds": 7401,
      "roo": 7402,
      "teles": 7403,
      "cox": 7404,
      "coban": 7405,
      "cover": 7406,
      "coast": 7407,
      "corex": 7408,
      "ely": 7409,
      "xãy": 7410,
      "ory": 7411,
      "orrow": 7412,
      "lead": 7413,
      "liêm": 7414,
      "mik": 7415,
      "mira": 7416,
      "miran": 7417,
      "milan": 7418,
      "migu": 7419,
      "milly": 7420,
      "nguệch": 7421,
      "muông": 7422,
      "muni": 7423,
      "terry": 7424,
      "hillar": 7425,
      "cav": 7426,
      "catch": 7427,
      "magie": 7428,
      "vul": 7429,
      "1910": 7430,
      "1926": 7431,
      "huh": 7432,
      "huý": 7433,
      "hubble": 7434,
      "kil": 7435,
      "kipp": 7436,
      "kirk": 7437,
      "reed": 7438,
      "suông": 7439,
      "sushi": 7440,
      "sunitha": 7441,
      "suzanne": 7442,
      "gothi": 7443,
      "golia": 7444,
      "billi": 7445,
      "board": 7446,
      "boul": 7447,
      "boeing": 7448,
      "20000": 7449,
      "hyper": 7450,
      "usb": 7451,
      "aspen": 7452,
      "niel": 7453,
      "hab": 7454,
      "habi": 7455,
      "dela": 7456,
      "genes": 7457,
      "gendor": 7458,
      "metro": 7459,
      "oke": 7460,
      "oklaho": 7461,
      "cey": 7462,
      "adven": 7463,
      "tonya": 7464,
      "nato": 7465,
      "martha": 7466,
      "with": 7467,
      "wire": 7468,
      "dublin": 7469,
      "robbie": 7470,
      "sava": 7471,
      "mênh": 7472,
      "jou": 7473,
      "canal": 7474,
      "ruby": 7475,
      "cama": 7476,
      "cari": 7477,
      "carbo": 7478,
      "koh": 7479,
      "kobe": 7480,
      "kohn": 7481,
      "kool": 7482,
      "cud": 7483,
      "secre": 7484,
      "manju": 7485,
      "pav": 7486,
      "palo": 7487,
      "paca": 7488,
      "pact": 7489,
      "pathy": 7490,
      "pachy": 7491,
      "morocco": 7492,
      "moocs": 7493,
      "shap": 7494,
      "shhh": 7495,
      "pimp": 7496,
      "popo": 7497,
      "gever": 7498,
      "impro": 7499,
      "impact": 7500,
      "vera": 7501,
      "novo": 7502,
      "noir": 7503,
      "cỡi": 7504,
      "javas": 7505,
      "vac": 7506,
      "prene": 7507,
      "unesco": 7508,
      "monster": 7509,
      "monica": 7510,
      "ganđi": 7511,
      "gambia": 7512,
      "fed": 7513,
      "fey": 7514,
      "feki": 7515,
      "cún": 7516,
      "vỏn": 7517,
      "kendall": 7518,
      "brahi": 7519,
      "fax": 7520,
      "fabian": 7521,
      "bye": 7522,
      "scand": 7523,
      "dereck": 7524,
      "1600": 7525,
      "1400": 7526,
      "1300": 7527,
      "hart": 7528,
      "harold": 7529,
      "50000": 7530,
      "gua": 7531,
      "protêin": 7532,
      "erica": 7533,
      "denburg": 7534,
      "zac": 7535,
      "zach": 7536,
      "franken": 7537,
      "frankie": 7538,
      "jur": 7539,
      "burma": 7540,
      "burst": 7541,
      "burkin": 7542,
      "pert": 7543,
      "parti": 7544,
      "party": 7545,
      "eddy": 7546,
      "mena": 7547,
      "nancy": 7548,
      "rene": 7549,
      "trol": 7550,
      "psy": 7551,
      "barcel": 7552,
      "ffer": 7553,
      "stry": 7554,
      "nơtrino": 7555,
      "phalo": 7556,
      "dioxit": 7557,
      "jeep": 7558,
      "lẻn": 7559,
      "30000": 7560,
      "oldenburg": 7561,
      "zeiro": 7562,
      "micrô": 7563,
      "palmer": 7564,
      "dòm": 7565,
      "darwln": 7566,
      "cyos": 7567,
      "tịt": 7568,
      "ics": 7569,
      "ical": 7570,
      "kinsey": 7571,
      "mina": 7572,
      "minori": 7573,
      "tuýp": 7574,
      "fowler": 7575,
      "pugh": 7576,
      "lene": 7577,
      "merce": 7578,
      "profen": 7579,
      "prospera": 7580,
      "ssen": 7581,
      "laura": 7582,
      "mcmurdo": 7583,
      "mcluhan": 7584,
      "walt": 7585,
      "walter": 7586,
      "worm": 7587,
      "geneva": 7588,
      "cacbonat": 7589,
      "vincent": 7590,
      "torval": 7591,
      "python": 7592,
      "adams": 7593,
      "desig": 7594,
      "jerinck": 7595,
      "pmtct": 7596,
      "watts": 7597,
      "villa": 7598,
      "craft": 7599,
      "richards": 7600,
      "action": 7601,
      "tomorrow": 7602,
      "smithsonian": 7603,
      "janei": 7604,
      "daily": 7605,
      "inches": 7606,
      "resear": 7607,
      "whirl": 7608,
      "madrid": 7609,
      "porter": 7610,
      "bmw": 7611,
      "swap": 7612,
      "jenn": 7613,
      "jenny": 7614,
      "1954": 7615,
      "1963": 7616,
      "ngưởi": 7617,
      "hood": 7618,
      "babbage": 7619,
      "sheph": 7620,
      "oxit": 7621,
      "worldwide": 7622,
      "granny": 7623,
      "truỵ": 7624,
      "kheim": 7625,
      "dietrich": 7626,
      "brin": 7627,
      "brck": 7628,
      "nua": 7629,
      "iowa": 7630,
      "gross": 7631,
      "ground": 7632,
      "every": 7633,
      "brey": 7634,
      "erowitz": 7635,
      "bird": 7636,
      "birmingham": 7637,
      "fischeri": 7638,
      "diane": 7639,
      "mission": 7640,
      "mills": 7641,
      "maps": 7642,
      "portland": 7643,
      "crea": 7644,
      "locke": 7645,
      "edwards": 7646,
      "yugos": 7647,
      "pepper": 7648,
      "atala": 7649,
      "clarke": 7650,
      "beatbox": 7651,
      "jackie": 7652,
      "cruzeiro": 7653,
      "hotmail": 7654,
      "hasbro": 7655,
      "heads": 7656,
      "dracorex": 7657,
      "sars": 7658,
      "durkheim": 7659,
      "capetown": 7660,
      "khadija": 7661,
      "kilomet": 7662,
      "cesar": 7663,
      "maggie": 7664,
      "whole": 7665,
      "goldman": 7666,
      "fildes": 7667,
      "tedtalks": 7668,
      "himalaya": 7669,
      "meyerowitz": 7670,
      "ukraina": 7671,
      "avatar": 7672,
      "phillip": 7673,
      "phillips": 7674,
      "pesa": 7675,
      "children": 7676,
      "ecosia": 7677,
      "mohammed": 7678,
      "heidi": 7679,
      "glass": 7680,
      "paolo": 7681,
      "tncs": 7682,
      "maasai": 7683,
      "marilyn": 7684,
      "curtis": 7685,
      "pierre": 7686,
      "standford": 7687,
      "betty": 7688,
      "đễnh": 7689,
      "solomon": 7690,
      "liffe": 7691,
      "meadow": 7692,
      "motors": 7693,
      "achilles": 7694,
      "cocaine": 7695,
      "health": 7696,
      "parik": 7697,
      "hoocmôn": 7698,
      "garden": 7699,
      "michoacán": 7700,
      "beijerinck": 7701,
      "morgana": 7702,
      "seligman": 7703,
      "meggendor": 7704,
      "johannes": 7705,
      "harriet": 7706,
      "frederick": 7707,
      "salaam": 7708,
      "diesel": 7709,
      "budapest": 7710,
      "namibia": 7711,
      "natalie": 7712,
      "mcgonigal": 7713,
      "remix": 7714,
      "homeopathy": 7715,
      "doyle": 7716,
      "tulley": 7717,
      "bolivia": 7718,
      "kuznets": 7719,
      "engelbart": 7720,
      "derartu": 7721,
      "democracyos": 7722,
      "epoxy": 7723,
      "italy": 7724,
      "ibuprofen": 7725,
      "radcliffe": 7726,
      "eskimo": 7727,
      "telescope": 7728,
      "miranda": 7729,
      "miguel": 7730,
      "hillary": 7731,
      "gothic": 7732,
      "boulder": 7733,
      "oklahoma": 7734,
      "secret": 7735,
      "improv": 7736,
      "javascript": 7737,
      "burkina": 7738,
      "barcelona": 7739,
      "minority": 7740,
      "torvalds": 7741,
      "janeiro": 7742,
      "research": 7743,
      "whirlwind": 7744,
      "yugosla": 7745,
      "meggendorfer": 7746,
      "1m": 7747,
      "1n1": 7748,
      "240": 7749,
      "3m": 7750,
      "380": 7751,
      "4sh": 7752,
      "4chan": 7753,
      "69": 7754,
      "ado": 7755,
      "acu": 7756,
      "atha": 7757,
      "azi": 7758,
      "bện": 7759,
      "bam": 7760,
      "bòng": 7761,
      "blai": 7762,
      "buốt": 7763,
      "bói": 7764,
      "bhara": 7765,
      "brew": 7766,
      "bủa": 7767,
      "bruss": 7768,
      "cút": 7769,
      "cạch": 7770,
      "cron": 7771,
      "cles": 7772,
      "cùa": 7773,
      "clau": 7774,
      "cùn": 7775,
      "club": 7776,
      "dẻ": 7777,
      "deo": 7778,
      "dầm": 7779,
      "dứa": 7780,
      "dmca": 7781,
      "ean": 7782,
      "een": 7783,
      "eti": 7784,
      "ebo": 7785,
      "epa": 7786,
      "eva": 7787,
      "egan": 7788,
      "fm": 7789,
      "fn": 7790,
      "fren": 7791,
      "flip": 7792,
      "fres": 7793,
      "flui": 7794,
      "flem": 7795,
      "fami": 7796,
      "gao": 7797,
      "gài": 7798,
      "gấm": 7799,
      "gun": 7800,
      "gala": 7801,
      "hững": 7802,
      "hấu": 7803,
      "hăm": 7804,
      "hman": 7805,
      "hổn": 7806,
      "hale": 7807,
      "hợm": 7808,
      "h1n1": 7809,
      "icon": 7810,
      "jb": 7811,
      "jn": 7812,
      "kau": 7813,
      "kền": 7814,
      "kos": 7815,
      "kine": 7816,
      "klee": 7817,
      "lì": 7818,
      "lằng": 7819,
      "lán": 7820,
      "liềm": 7821,
      "lòi": 7822,
      "liệng": 7823,
      "lằn": 7824,
      "mền": 7825,
      "mảy": 7826,
      "mượt": 7827,
      "meme": 7828,
      "ná": 7829,
      "nị": 7830,
      "nạo": 7831,
      "nem": 7832,
      "nái": 7833,
      "nôm": 7834,
      "nad": 7835,
      "nell": 7836,
      "nbc": 7837,
      "oy": 7838,
      "oanh": 7839,
      "oái": 7840,
      "oát": 7841,
      "ole": 7842,
      "ods": 7843,
      "omic": 7844,
      "oit": 7845,
      "oid": 7846,
      "panh": 7847,
      "pti": 7848,
      "plai": 7849,
      "rì": 7850,
      "rỏ": 7851,
      "rôi": 7852,
      "rinh": 7853,
      "ráng": 7854,
      "ráo": 7855,
      "rốn": 7856,
      "rụt": 7857,
      "sê": 7858,
      "sụ": 7859,
      "sem": 7860,
      "sởi": 7861,
      "sưa": 7862,
      "sắn": 7863,
      "são": 7864,
      "sval": 7865,
      "shop": 7866,
      "spock": 7867,
      "tà": 7868,
      "tấp": 7869,
      "tẩm": 7870,
      "tào": 7871,
      "táp": 7872,
      "tton": 7873,
      "two": 7874,
      "tner": 7875,
      "tĩu": 7876,
      "una": 7877,
      "urani": 7878,
      "vm": 7879,
      "vồ": 7880,
      "vắn": 7881,
      "vát": 7882,
      "vầng": 7883,
      "wt": 7884,
      "wester": 7885,
      "where": 7886,
      "xan": 7887,
      "xước": 7888,
      "xát": 7889,
      "xắp": 7890,
      "xẩy": 7891,
      "xml": 7892,
      "yun": 7893,
      "ăt": 7894,
      "đặng": 7895,
      "ngông": 7896,
      "ngán": 7897,
      "ngóng": 7898,
      "ngốn": 7899,
      "nhác": 7900,
      "nhúc": 7901,
      "nhẩm": 7902,
      "nhẵn": 7903,
      "nhằn": 7904,
      "cht": 7905,
      "chớ": 7906,
      "chùng": 7907,
      "chem": 7908,
      "chội": 7909,
      "ches": 7910,
      "thong": 7911,
      "thinh": 7912,
      "thơi": 7913,
      "thar": 7914,
      "thri": 7915,
      "trĩ": 7916,
      "trọ": 7917,
      "trọc": 7918,
      "trand": 7919,
      "trek": 7920,
      "khstan": 7921,
      "phũ": 7922,
      "phạn": 7923,
      "phal": 7924,
      "phẩy": 7925,
      "phol": 7926,
      "photo": 7927,
      "quất": 7928,
      "quin": 7929,
      "quàng": 7930,
      "giớ": 7931,
      "giằng": 7932,
      "giương": 7933,
      "giõi": 7934,
      "taj": 7935,
      "rala": 7936,
      "ratan": 7937,
      "rabin": 7938,
      "rajas": 7939,
      "raib": 7940,
      "angola": 7941,
      "hosni": 7942,
      "onen": 7943,
      "inia": 7944,
      "contain": 7945,
      "tommy": 7946,
      "lof": 7947,
      "lom": 7948,
      "lov": 7949,
      "lothar": 7950,
      "thuý": 7951,
      "ammonia": 7952,
      "ern": 7953,
      "erez": 7954,
      "doro": 7955,
      "dopa": 7956,
      "theodore": 7957,
      "enri": 7958,
      "dit": 7959,
      "bộn": 7960,
      "lup": 7961,
      "tun": 7962,
      "tut": 7963,
      "tury": 7964,
      "tulip": 7965,
      "giaco": 7966,
      "tington": 7967,
      "tuyni": 7968,
      "aria": 7969,
      "vich": 7970,
      "ngoi": 7971,
      "phis": 7972,
      "ril": 7973,
      "alah": 7974,
      "alley": 7975,
      "bath": 7976,
      "bacon": 7977,
      "back": 7978,
      "eson": 7979,
      "ghar": 7980,
      "ghraib": 7981,
      "khua": 7982,
      "lag": 7983,
      "lazar": 7984,
      "bucardo": 7985,
      "somali": 7986,
      "socrates": 7987,
      "roe": 7988,
      "roir": 7989,
      "roflui": 7990,
      "elyn": 7991,
      "elias": 7992,
      "chison": 7993,
      "chistan": 7994,
      "negro": 7995,
      "orwell": 7996,
      "lear": 7997,
      "legad": 7998,
      "lehman": 7999,
      "lis": 8000,
      "lich": 8001,
      "lithi": 8002,
      "ose": 8003,
      "oslo": 8004,
      "dat": 8005,
      "dakota": 8006,
      "mistry": 8007,
      "tưng": 8008,
      "ômét": 8009,
      "appal": 8010,
      "apoli": 8011,
      "muồi": 8012,
      "musta": 8013,
      "musica": 8014,
      "2016": 8015,
      "terroir": 8016,
      "hicô": 8017,
      "siver": 8018,
      "caff": 8019,
      "catherine": 8020,
      "maz": 8021,
      "mason": 8022,
      "macar": 8023,
      "macin": 8024,
      "maker": 8025,
      "madison": 8026,
      "chịt": 8027,
      "1929": 8028,
      "1938": 8029,
      "huang": 8030,
      "hutu": 8031,
      "hugh": 8032,
      "huhu": 8033,
      "isel": 8034,
      "kiran": 8035,
      "ret": 8036,
      "recor": 8037,
      "rect": 8038,
      "sughar": 8039,
      "ckel": 8040,
      "ckly": 8041,
      "andrea": 8042,
      "bic": 8043,
      "biot": 8044,
      "sởn": 8045,
      "boong": 8046,
      "boko": 8047,
      "bobby": 8048,
      "borane": 8049,
      "tracy": 8050,
      "hydra": 8051,
      "use": 8052,
      "nim": 8053,
      "deb": 8054,
      "dec": 8055,
      "dev": 8056,
      "depp": 8057,
      "dewey": 8058,
      "genera": 8059,
      "meda": 8060,
      "oker": 8061,
      "cephalo": 8062,
      "adrian": 8063,
      "adhd": 8064,
      "natu": 8065,
      "maris": 8066,
      "marcel": 8067,
      "dul": 8068,
      "atten": 8069,
      "interval": 8070,
      "international": 8071,
      "líp": 8072,
      "saf": 8073,
      "save": 8074,
      "sacra": 8075,
      "mêhicô": 8076,
      "joan": 8077,
      "joplin": 8078,
      "cana": 8079,
      "webb": 8080,
      "webster": 8081,
      "pew": 8082,
      "petri": 8083,
      "carmen": 8084,
      "kozy": 8085,
      "kowitz": 8086,
      "cuôc": 8087,
      "beck": 8088,
      "behar": 8089,
      "seng": 8090,
      "manchester": 8091,
      "tair": 8092,
      "bernou": 8093,
      "berners": 8094,
      "bertrand": 8095,
      "forer": 8096,
      "pack": 8097,
      "kev": 8098,
      "kerala": 8099,
      "1850": 8100,
      "1890": 8101,
      "1879": 8102,
      "mori": 8103,
      "mobi": 8104,
      "modem": 8105,
      "shasa": 8106,
      "pire": 8107,
      "pierson": 8108,
      "stephan": 8109,
      "xing": 8110,
      "bond": 8111,
      "bềnh": 8112,
      "trìu": 8113,
      "nokia": 8114,
      "jahi": 8115,
      "geren": 8116,
      "tôt": 8117,
      "under": 8118,
      "unded": 8119,
      "hama": 8120,
      "hamburg": 8121,
      "montre": 8122,
      "yochai": 8123,
      "wool": 8124,
      "wofford": 8125,
      "wounded": 8126,
      "gamble": 8127,
      "risd": 8128,
      "kaza": 8129,
      "ille": 8130,
      "hecta": 8131,
      "cheval": 8132,
      "braxin": 8133,
      "bragg": 8134,
      "rush": 8135,
      "faso": 8136,
      "vermeer": 8137,
      "dana": 8138,
      "maidan": 8139,
      "scru": 8140,
      "fitz": 8141,
      "dịnh": 8142,
      "guga": 8143,
      "proto": 8144,
      "gray": 8145,
      "grameen": 8146,
      "erick": 8147,
      "zabb": 8148,
      "frances": 8149,
      "parov": 8150,
      "mento": 8151,
      "cir": 8152,
      "bartok": 8153,
      "ffin": 8154,
      "aleen": 8155,
      "llinger": 8156,
      "hane": 8157,
      "jeans": 8158,
      "masters": 8159,
      "bennett": 8160,
      "benoit": 8161,
      "malthus": 8162,
      "wael": 8163,
      "wagner": 8164,
      "warcraft": 8165,
      "winky": 8166,
      "commons": 8167,
      "georges": 8168,
      "kindle": 8169,
      "kinshasa": 8170,
      "minster": 8171,
      "food": 8172,
      "puerto": 8173,
      "eliot": 8174,
      "elile": 8175,
      "bose": 8176,
      "bosch": 8177,
      "laug": 8178,
      "laurie": 8179,
      "mccar": 8180,
      "walla": 8181,
      "woods": 8182,
      "jonny": 8183,
      "kermit": 8184,
      "garia": 8185,
      "haram": 8186,
      "talks": 8187,
      "balkans": 8188,
      "gallup": 8189,
      "fergus": 8190,
      "ferroflui": 8191,
      "nash": 8192,
      "myco": 8193,
      "myspace": 8194,
      "market": 8195,
      "kare": 8196,
      "karmap": 8197,
      "lamani": 8198,
      "calcut": 8199,
      "hercu": 8200,
      "herbie": 8201,
      "igf": 8202,
      "panama": 8203,
      "starck": 8204,
      "greene": 8205,
      "msala": 8206,
      "pash": 8207,
      "paste": 8208,
      "arez": 8209,
      "salman": 8210,
      "maddie": 8211,
      "dini": 8212,
      "dink": 8213,
      "florence": 8214,
      "cọp": 8215,
      "fuller": 8216,
      "prius": 8217,
      "nellie": 8218,
      "sinai": 8219,
      "temple": 8220,
      "match": 8221,
      "matty": 8222,
      "stitu": 8223,
      "union": 8224,
      "united": 8225,
      "univer": 8226,
      "nickname": 8227,
      "1959": 8228,
      "1967": 8229,
      "sandberg": 8230,
      "sheena": 8231,
      "zullinger": 8232,
      "xenlulo": 8233,
      "huntington": 8234,
      "colombo": 8235,
      "brot": 8236,
      "nuông": 8237,
      "nucle": 8238,
      "store": 8239,
      "maui": 8240,
      "neanderthals": 8241,
      "avelile": 8242,
      "cial": 8243,
      "wilkins": 8244,
      "brea": 8245,
      "bread": 8246,
      "egel": 8247,
      "moskowitz": 8248,
      "limb": 8249,
      "kiev": 8250,
      "birds": 8251,
      "techno": 8252,
      "466": 8253,
      "upload": 8254,
      "fission": 8255,
      "ipods": 8256,
      "lord": 8257,
      "beatrice": 8258,
      "jeanny": 8259,
      "bundy": 8260,
      "bolte": 8261,
      "disneyland": 8262,
      "awton": 8263,
      "claes": 8264,
      "oops": 8265,
      "bieber": 8266,
      "shereen": 8267,
      "kenneth": 8268,
      "batiuk": 8269,
      "ashdown": 8270,
      "grier": 8271,
      "bulgaria": 8272,
      "carlton": 8273,
      "douglas": 8274,
      "clark": 8275,
      "kamal": 8276,
      "meegeren": 8277,
      "jared": 8278,
      "ozone": 8279,
      "change": 8280,
      "changing": 8281,
      "burns": 8282,
      "rrrr": 8283,
      "austen": 8284,
      "basca": 8285,
      "cornell": 8286,
      "kurzwe": 8287,
      "sarkozy": 8288,
      "ralph": 8289,
      "cauca": 8290,
      "caust": 8291,
      "postsecret": 8292,
      "crimer": 8293,
      "mckay": 8294,
      "small": 8295,
      "garage": 8296,
      "karate": 8297,
      "scrabble": 8298,
      "ridley": 8299,
      "hormone": 8300,
      "napot": 8301,
      "wangari": 8302,
      "mullins": 8303,
      "reader": 8304,
      "megawatt": 8305,
      "kasparov": 8306,
      "blanc": 8307,
      "pont": 8308,
      "punta": 8309,
      "playstation": 8310,
      "saint": 8311,
      "mía": 8312,
      "terawatt": 8313,
      "hazleton": 8314,
      "churchill": 8315,
      "cloudburst": 8316,
      "reuters": 8317,
      "khalil": 8318,
      "vetson": 8319,
      "alison": 8320,
      "apophis": 8321,
      "bourne": 8322,
      "centimét": 8323,
      "adrenalin": 8324,
      "sesame": 8325,
      "wonder": 8326,
      "chandler": 8327,
      "albania": 8328,
      "milliken": 8329,
      "bionicle": 8330,
      "carrillo": 8331,
      "gregory": 8332,
      "shackleton": 8333,
      "salinas": 8334,
      "channelrho": 8335,
      "bitcoin": 8336,
      "dharamsala": 8337,
      "hơp": 8338,
      "osorio": 8339,
      "arnold": 8340,
      "khuỷu": 8341,
      "cousteau": 8342,
      "hatzalah": 8343,
      "quixote": 8344,
      "college": 8345,
      "drybath": 8346,
      "ikigai": 8347,
      "seoul": 8348,
      "uruguay": 8349,
      "holocaust": 8350,
      "autodesk": 8351,
      "toonchi": 8352,
      "huých": 8353,
      "kilômét": 8354,
      "hypercard": 8355,
      "koolhaas": 8356,
      "pachycephalo": 8357,
      "frankenstein": 8358,
      "jurvetson": 8359,
      "partici": 8360,
      "design": 8361,
      "swaptree": 8362,
      "shephelah": 8363,
      "everywhere": 8364,
      "creative": 8365,
      "4shbab": 8366,
      "acumen": 8367,
      "athabasca": 8368,
      "brussels": 8369,
      "svalbard": 8370,
      "uranium": 8371,
      "yunus": 8372,
      "pholeros": 8373,
      "rajasthan": 8374,
      "container": 8375,
      "dorothy": 8376,
      "tuynisi": 8377,
      "lazarus": 8378,
      "legadema": 8379,
      "lithium": 8380,
      "appala": 8381,
      "sivers": 8382,
      "macintosh": 8383,
      "attenborough": 8384,
      "sacramento": 8385,
      "bernoulli": 8386,
      "montreal": 8387,
      "zabbaleen": 8388,
      "ferguson": 8389,
      "ferrofluid": 8390,
      "karmapa": 8391,
      "calcutta": 8392,
      "kurzweil": 8393,
      "01": 8394,
      "07": 8395,
      "2kg": 8396,
      "3k": 8397,
      "330": 8398,
      "5m": 8399,
      "9kg": 8400,
      "aj": 8401,
      "aqua": 8402,
      "aha": 8403,
      "aber": 8404,
      "ahn": 8405,
      "bẹ": 8406,
      "biều": 8407,
      "bậy": 8408,
      "bập": 8409,
      "bọng": 8410,
      "bét": 8411,
      "bine": 8412,
      "bess": 8413,
      "blen": 8414,
      "bbits": 8415,
      "cb": 8416,
      "cở": 8417,
      "ctr": 8418,
      "cộc": 8419,
      "cạc": 8420,
      "cầy": 8421,
      "cale": 8422,
      "cộm": 8423,
      "cester": 8424,
      "ccob": 8425,
      "d4": 8426,
      "dn": 8427,
      "dà": 8428,
      "dề": 8429,
      "dến": 8430,
      "diển": 8431,
      "dầy": 8432,
      "dama": 8433,
      "ego": 8434,
      "eden": 8435,
      "fau": 8436,
      "flin": 8437,
      "fast": 8438,
      "from": 8439,
      "g8": 8440,
      "gờ": 8441,
      "gnh": 8442,
      "got": 8443,
      "gòn": 8444,
      "gượng": 8445,
      "gbm": 8446,
      "glia": 8447,
      "gmail": 8448,
      "ht": 8449,
      "hí": 8450,
      "hú": 8451,
      "hờ": 8452,
      "hinh": 8453,
      "hau": 8454,
      "hổi": 8455,
      "hòng": 8456,
      "hám": 8457,
      "hardy": 8458,
      "iri": 8459,
      "ius": 8460,
      "iper": 8461,
      "idol": 8462,
      "iyama": 8463,
      "jt": 8464,
      "jpl": 8465,
      "kít": 8466,
      "kni": 8467,
      "klin": 8468,
      "kcd": 8469,
      "lk": 8470,
      "lp": 8471,
      "lác": 8472,
      "lơi": 8473,
      "lữa": 8474,
      "lúp": 8475,
      "lẩm": 8476,
      "lút": 8477,
      "liếm": 8478,
      "lạch": 8479,
      "ltan": 8480,
      "lbs": 8481,
      "mủ": 8482,
      "mống": 8483,
      "mạt": 8484,
      "mbu": 8485,
      "mửa": 8486,
      "mầy": 8487,
      "múi": 8488,
      "mứt": 8489,
      "mtv": 8490,
      "mall": 8491,
      "mcafe": 8492,
      "mbus": 8493,
      "mbor": 8494,
      "măt": 8495,
      "nc": 8496,
      "nệ": 8497,
      "nong": 8498,
      "nanh": 8499,
      "náp": 8500,
      "nard": 8501,
      "nfl": 8502,
      "ou": 8503,
      "ora": 8504,
      "oai": 8505,
      "ocar": 8506,
      "oza": 8507,
      "othy": 8508,
      "ommm": 8509,
      "pj": 8510,
      "pay": 8511,
      "peo": 8512,
      "pel": 8513,
      "pris": 8514,
      "pts": 8515,
      "ption": 8516,
      "ppm": 8517,
      "ppam": 8518,
      "pbs": 8519,
      "poker": 8520,
      "qủa": 8521,
      "ré": 8522,
      "rít": 8523,
      "rằm": 8524,
      "rám": 8525,
      "remen": 8526,
      "sj": 8527,
      "só": 8528,
      "sạo": 8529,
      "sel": 8530,
      "sna": 8531,
      "sko": 8532,
      "stri": 8533,
      "sno": 8534,
      "spin": 8535,
      "szy": 8536,
      "slash": 8537,
      "skerry": 8538,
      "tm": 8539,
      "tạt": 8540,
      "tford": 8541,
      "uz": 8542,
      "uca": 8543,
      "vè": 8544,
      "vế": 8545,
      "váo": 8546,
      "vút": 8547,
      "vât": 8548,
      "wyo": 8549,
      "wada": 8550,
      "xơi": 8551,
      "xạc": 8552,
      "xưng": 8553,
      "xkcd": 8554,
      "yb": 8555,
      "yếm": 8556,
      "zôn": 8557,
      "zine": 8558,
      "âp": 8559,
      "đì": 8560,
      "đúp": 8561,
      "đuốc": 8562,
      "đàu": 8563,
      "ẫng": 8564,
      "ẵm": 8565,
      "ểu": 8566,
      "ỵt": 8567,
      "ngỗ": 8568,
      "ngạn": 8569,
      "ngai": 8570,
      "ngal": 8571,
      "nhá": 8572,
      "nhợ": 8573,
      "nhiện": 8574,
      "nhích": 8575,
      "nhiếm": 8576,
      "chè": 8577,
      "chác": 8578,
      "chau": 8579,
      "chài": 8580,
      "chắng": 8581,
      "chắp": 8582,
      "champ": 8583,
      "thé": 8584,
      "thệ": 8585,
      "thóc": 8586,
      "thọc": 8587,
      "thãi": 8588,
      "thrun": 8589,
      "thwai": 8590,
      "think": 8591,
      "tren": 8592,
      "trệt": 8593,
      "trớn": 8594,
      "khư": 8595,
      "khạo": 8596,
      "khồng": 8597,
      "phường": 8598,
      "phung": 8599,
      "phập": 8600,
      "phel": 8601,
      "phne": 8602,
      "quở": 8603,
      "quắt": 8604,
      "quầng": 8605,
      "gis": 8606,
      "giã": 8607,
      "giầu": 8608,
      "githu": 8609,
      "gimo": 8610,
      "giga": 8611,
      "give": 8612,
      "gital": 8613,
      "cáng": 8614,
      "tap": 8615,
      "tahi": 8616,
      "takis": 8617,
      "nghành": 8618,
      "uyn": 8619,
      "raf": 8620,
      "race": 8621,
      "ramon": 8622,
      "rail": 8623,
      "rability": 8624,
      "oti": 8625,
      "chor": 8626,
      "choir": 8627,
      "sực": 8628,
      "đểu": 8629,
      "hog": 8630,
      "horo": 8631,
      "homer": 8632,
      "khiêng": 8633,
      "oni": 8634,
      "aida": 8635,
      "ines": 8636,
      "ince": 8637,
      "indus": 8638,
      "conan": 8639,
      "control": 8640,
      "toại": 8641,
      "toma": 8642,
      "today": 8643,
      "tophan": 8644,
      "tooth": 8645,
      "đich": 8646,
      "loi": 8647,
      "loã": 8648,
      "loch": 8649,
      "loai": 8650,
      "look": 8651,
      "loit": 8652,
      "lobin": 8653,
      "locav": 8654,
      "khov": 8655,
      "empire": 8656,
      "bịu": 8657,
      "amba": 8658,
      "amjad": 8659,
      "dooli": 8660,
      "endo": 8661,
      "enne": 8662,
      "enter": 8663,
      "enberg": 8664,
      "dik": 8665,
      "dich": 8666,
      "dion": 8667,
      "dios": 8668,
      "luja": 8669,
      "lusion": 8670,
      "tuồi": 8671,
      "tual": 8672,
      "tuni": 8673,
      "tier": 8674,
      "ties": 8675,
      "tibbits": 8676,
      "hão": 8677,
      "xun": 8678,
      "xusc": 8679,
      "armen": 8680,
      "archer": 8681,
      "aroo": 8682,
      "vig": 8683,
      "vision": 8684,
      "vicini": 8685,
      "baobab": 8686,
      "ngoằn": 8687,
      "riam": 8688,
      "riba": 8689,
      "rico": 8690,
      "rice": 8691,
      "rika": 8692,
      "rift": 8693,
      "als": 8694,
      "aldo": 8695,
      "alli": 8696,
      "allah": 8697,
      "bazo": 8698,
      "esp": 8699,
      "espres": 8700,
      "ghter": 8701,
      "khuân": 8702,
      "lad": 8703,
      "lawa": 8704,
      "busin": 8705,
      "bueller": 8706,
      "sox": 8707,
      "sore": 8708,
      "some": 8709,
      "rod": 8710,
      "rosa": 8711,
      "phít": 8712,
      "cod": 8713,
      "cop": 8714,
      "coli": 8715,
      "come": 8716,
      "cool": 8717,
      "cobs": 8718,
      "ello": 8719,
      "eline": 8720,
      "khảm": 8721,
      "chitra": 8722,
      "chilê": 8723,
      "ned": 8724,
      "next": 8725,
      "nerability": 8726,
      "môtô": 8727,
      "lima": 8728,
      "little": 8729,
      "dac": 8730,
      "date": 8731,
      "daphne": 8732,
      "mick": 8733,
      "miko": 8734,
      "mild": 8735,
      "mizz": 8736,
      "102": 8737,
      "105": 8738,
      "dùi": 8739,
      "mui": 8740,
      "mujahi": 8741,
      "teresa": 8742,
      "his": 8743,
      "hing": 8744,
      "type": 8745,
      "tyler": 8746,
      "sic": 8747,
      "siêng": 8748,
      "simo": 8749,
      "siemen": 8750,
      "catan": 8751,
      "mae": 8752,
      "mash": 8753,
      "vun": 8754,
      "1919": 8755,
      "1928": 8756,
      "1932": 8757,
      "1941": 8758,
      "hut": 8759,
      "iss": 8760,
      "iser": 8761,
      "isaf": 8762,
      "kip": 8763,
      "kir": 8764,
      "kiki": 8765,
      "kick": 8766,
      "kilô": 8767,
      "nghiễm": 8768,
      "rei": 8769,
      "rev": 8770,
      "reau": 8771,
      "reen": 8772,
      "real": 8773,
      "vệc": 8774,
      "ted2010": 8775,
      "ted2011": 8776,
      "tedxusc": 8777,
      "bana": 8778,
      "band": 8779,
      "bannis": 8780,
      "tania": 8781,
      "tandon": 8782,
      "taniyama": 8783,
      "sul": 8784,
      "sufi": 8785,
      "suỵt": 8786,
      "ckx": 8787,
      "gow": 8788,
      "gota": 8789,
      "gori": 8790,
      "goran": 8791,
      "godin": 8792,
      "goose": 8793,
      "mùn": 8794,
      "andra": 8795,
      "bike": 8796,
      "bolin": 8797,
      "bogota": 8798,
      "track": 8799,
      "usc": 8800,
      "assang": 8801,
      "astro": 8802,
      "timothy": 8803,
      "niger": 8804,
      "nington": 8805,
      "nicot": 8806,
      "ghita": 8807,
      "hacking": 8808,
      "deve": 8809,
      "defriend": 8810,
      "generic": 8811,
      "genspace": 8812,
      "rand": 8813,
      "randy": 8814,
      "thich": 8815,
      "mechan": 8816,
      "mecca": 8817,
      "nhuỵ": 8818,
      "100000": 8819,
      "oka": 8820,
      "cedar": 8821,
      "adria": 8822,
      "marla": 8823,
      "marvin": 8824,
      "marrow": 8825,
      "wig": 8826,
      "willy": 8827,
      "duc": 8828,
      "duệ": 8829,
      "duplex": 8830,
      "saxe": 8831,
      "sagan": 8832,
      "satur": 8833,
      "jonh": 8834,
      "jody": 8835,
      "cannes": 8836,
      "pee": 8837,
      "cưú": 8838,
      "rupal": 8839,
      "15000": 8840,
      "camden": 8841,
      "camero": 8842,
      "911": 8843,
      "12000": 8844,
      "care": 8845,
      "carson": 8846,
      "carib": 8847,
      "kofi": 8848,
      "cul": 8849,
      "cuống": 8850,
      "cuồn": 8851,
      "cure": 8852,
      "bean": 8853,
      "bear": 8854,
      "sears": 8855,
      "taire": 8856,
      "bergh": 8857,
      "berkley": 8858,
      "force": 8859,
      "kee": 8860,
      "model": 8861,
      "shot": 8862,
      "shin": 8863,
      "shino": 8864,
      "pix": 8865,
      "tritium": 8866,
      "pold": 8867,
      "gaad": 8868,
      "xide": 8869,
      "sơm": 8870,
      "imper": 8871,
      "ved": 8872,
      "santo": 8873,
      "sanccob": 8874,
      "rony": 8875,
      "ronson": 8876,
      "leslie": 8877,
      "lessig": 8878,
      "java": 8879,
      "jacobs": 8880,
      "ogram": 8881,
      "oglobin": 8882,
      "vah": 8883,
      "german": 8884,
      "unaids": 8885,
      "googler": 8886,
      "hamil": 8887,
      "kahn": 8888,
      "feed": 8889,
      "theid": 8890,
      "hebrew": 8891,
      "hexan": 8892,
      "kendal": 8893,
      "kenyan": 8894,
      "chev": 8895,
      "check": 8896,
      "chekhov": 8897,
      "thane": 8898,
      "niall": 8899,
      "fide": 8900,
      "fires": 8901,
      "pinot": 8902,
      "harmon": 8903,
      "haring": 8904,
      "gut": 8905,
      "graph": 8906,
      "grams": 8907,
      "denver": 8908,
      "frans": 8909,
      "christina": 8910,
      "christakis": 8911,
      "jugaad": 8912,
      "pers": 8913,
      "parker": 8914,
      "ahh": 8915,
      "ahmeda": 8916,
      "edx": 8917,
      "eddi": 8918,
      "175": 8919,
      "vena": 8920,
      "ventu": 8921,
      "venia": 8922,
      "renny": 8923,
      "stage": 8924,
      "trow": 8925,
      "bardo": 8926,
      "barton": 8927,
      "bros": 8928,
      "brohi": 8929,
      "thổng": 8930,
      "lling": 8931,
      "hanson": 8932,
      "dioxide": 8933,
      "jec": 8934,
      "syn": 8935,
      "tendo": 8936,
      "bene": 8937,
      "benedi": 8938,
      "bennington": 8939,
      "olson": 8940,
      "wak": 8941,
      "cyborg": 8942,
      "kyma": 8943,
      "compan": 8944,
      "itz": 8945,
      "miner": 8946,
      "shawn": 8947,
      "tủa": 8948,
      "found": 8949,
      "foods": 8950,
      "merckx": 8951,
      "wash": 8952,
      "belle": 8953,
      "belsha": 8954,
      "nylon": 8955,
      "prozac": 8956,
      "ggy": 8957,
      "laus": 8958,
      "laurel": 8959,
      "walters": 8960,
      "queen": 8961,
      "queens": 8962,
      "raymond": 8963,
      "cisco": 8964,
      "worcester": 8965,
      "plexi": 8966,
      "jiv": 8967,
      "coltan": 8968,
      "coleridge": 8969,
      "collusion": 8970,
      "galen": 8971,
      "galvani": 8972,
      "nesty": 8973,
      "ship": 8974,
      "vén": 8975,
      "sams": 8976,
      "myesha": 8977,
      "runch": 8978,
      "act": 8979,
      "corp": 8980,
      "tombo": 8981,
      "analog": 8982,
      "server": 8983,
      "studs": 8984,
      "kuiper": 8985,
      "kuppam": 8986,
      "rockwell": 8987,
      "pant": 8988,
      "pandora": 8989,
      "blebee": 8990,
      "start": 8991,
      "seni": 8992,
      "salt": 8993,
      "whites": 8994,
      "lênh": 8995,
      "damon": 8996,
      "schlaug": 8997,
      "edith": 8998,
      "melbourne": 8999,
      "prickly": 9000,
      "gayle": 9001,
      "wislawa": 9002,
      "celli": 9003,
      "mormon": 9004,
      "jenkins": 9005,
      "1952": 9006,
      "1956": 9007,
      "1958": 9008,
      "1964": 9009,
      "1966": 9010,
      "ngụm": 9011,
      "sandel": 9012,
      "metti": 9013,
      "thaler": 9014,
      "babble": 9015,
      "pamela": 9016,
      "zucker": 9017,
      "discover": 9018,
      "worldchanging": 9019,
      "turin": 9020,
      "hunt": 9021,
      "fark": 9022,
      "fargo": 9023,
      "true": 9024,
      "brd4": 9025,
      "héc": 9026,
      "nut": 9027,
      "zimbardo": 9028,
      "blues": 9029,
      "dough": 9030,
      "virtual": 9031,
      "patton": 9032,
      "emite": 9033,
      "halle": 9034,
      "442": 9035,
      "lotto": 9036,
      "limpopo": 9037,
      "blackawton": 9038,
      "brendan": 9039,
      "birke": 9040,
      "bluetooth": 9041,
      "virgin": 9042,
      "omg": 9043,
      "bumblebee": 9044,
      "leonard": 9045,
      "tahltan": 9046,
      "calorie": 9047,
      "aaaa": 9048,
      "bunker": 9049,
      "mapendo": 9050,
      "airbus": 9051,
      "royal": 9052,
      "royce": 9053,
      "brugger": 9054,
      "weiffen": 9055,
      "paralympi": 9056,
      "parabol": 9057,
      "paravicini": 9058,
      "spee": 9059,
      "susana": 9060,
      "shirin": 9061,
      "abdul": 9062,
      "atacama": 9063,
      "claron": 9064,
      "kamkw": 9065,
      "lovegrove": 9066,
      "beatjazz": 9067,
      "cruise": 9068,
      "hemoglobin": 9069,
      "router": 9070,
      "bowling": 9071,
      "bowski": 9072,
      "683": 9073,
      "basque": 9074,
      "milk": 9075,
      "milton": 9076,
      "copernican": 9077,
      "ensler": 9078,
      "elliot": 9079,
      "1904": 9080,
      "volta": 9081,
      "volvo": 9082,
      "mckean": 9083,
      "louise": 9084,
      "dallas": 9085,
      "goldstein": 9086,
      "hahaha": 9087,
      "projec": 9088,
      "rhodes": 9089,
      "download": 9090,
      "napster": 9091,
      "romeo": 9092,
      "dunlap": 9093,
      "avaz": 9094,
      "ballbot": 9095,
      "kismet": 9096,
      "rolls": 9097,
      "blanca": 9098,
      "fraser": 9099,
      "ponte": 9100,
      "springs": 9101,
      "jetman": 9102,
      "glasgow": 9103,
      "wujec": 9104,
      "maathai": 9105,
      "summer": 9106,
      "patricia": 9107,
      "pierpont": 9108,
      "standard": 9109,
      "dotcom": 9110,
      "finn": 9111,
      "finan": 9112,
      "stygimo": 9113,
      "county": 9114,
      "tedsters": 9115,
      "campbell": 9116,
      "pollock": 9117,
      "bradley": 9118,
      "vanier": 9119,
      "borges": 9120,
      "ghonim": 9121,
      "jaim": 9122,
      "kangaroo": 9123,
      "krishna": 9124,
      "schulz": 9125,
      "đăc": 9126,
      "đăt": 9127,
      "antonio": 9128,
      "violon": 9129,
      "cocain": 9130,
      "kitty": 9131,
      "reuther": 9132,
      "pilots": 9133,
      "noujaim": 9134,
      "250000": 9135,
      "bloomberg": 9136,
      "geoffrey": 9137,
      "lgb": 9138,
      "khalida": 9139,
      "mouth": 9140,
      "kathryn": 9141,
      "jansen": 9142,
      "jansky": 9143,
      "slovenia": 9144,
      "smartphone": 9145,
      "twain": 9146,
      "casablanca": 9147,
      "picnic": 9148,
      "easy": 9149,
      "idaho": 9150,
      "yosemite": 9151,
      "augustine": 9152,
      "basit": 9153,
      "apartheid": 9154,
      "caramen": 9155,
      "joyce": 9156,
      "lindbergh": 9157,
      "league": 9158,
      "sulfur": 9159,
      "joachim": 9160,
      "mountain": 9161,
      "hepburn": 9162,
      "barricelli": 9163,
      "heroin": 9164,
      "mellody": 9165,
      "hippocrates": 9166,
      "gleeson": 9167,
      "italia": 9168,
      "sardinia": 9169,
      "yards": 9170,
      "zappos": 9171,
      "buckminster": 9172,
      "soundscape": 9173,
      "vulnerability": 9174,
      "goliath": 9175,
      "novocure": 9176,
      "vacxin": 9177,
      "mercedes": 9178,
      "wormwood": 9179,
      "yugoslavia": 9180,
      "cronin": 9181,
      "ebola": 9182,
      "fleming": 9183,
      "omics": 9184,
      "enriquez": 9185,
      "tutsi": 9186,
      "giacometti": 9187,
      "negroponte": 9188,
      "mustafa": 9189,
      "kevlar": 9190,
      "mobile": 9191,
      "stephanie": 9192,
      "kazakhstan": 9193,
      "scrubs": 9194,
      "fitzgerald": 9195,
      "mycoplasma": 9196,
      "lamanites": 9197,
      "universal": 9198,
      "xenluloza": 9199,
      "caucasus": 9200,
      "channelrhodops": 9201,
      "participant": 9202,
      "html": 9203,
      "mcafee": 9204,
      "mborska": 9205,
      "ocarina": 9206,
      "people": 9207,
      "ptsd": 9208,
      "strider": 9209,
      "snoop": 9210,
      "szymborska": 9211,
      "uzbe": 9212,
      "wyoming": 9213,
      "github": 9214,
      "horowitz": 9215,
      "locavore": 9216,
      "allison": 9217,
      "espresso": 9218,
      "business": 9219,
      "mildred": 9220,
      "mizzone": 9221,
      "siemens": 9222,
      "bannister": 9223,
      "assange": 9224,
      "mechanical": 9225,
      "cedars": 9226,
      "cameroon": 9227,
      "caribbean": 9228,
      "imperial": 9229,
      "hamilton": 9230,
      "ahmedabad": 9231,
      "company": 9232,
      "weiffenbach": 9233,
      "stygimoloch": 9234,
      "02": 9235,
      "112": 9236,
      "1cm": 9237,
      "260": 9238,
      "3500": 9239,
      "4d": 9240,
      "4x": 9241,
      "440": 9242,
      "413": 9243,
      "5t": 9244,
      "550": 9245,
      "5kg": 9246,
      "544": 9247,
      "81": 9248,
      "826": 9249,
      "864": 9250,
      "a4": 9251,
      "alu": 9252,
      "ati": 9253,
      "aar": 9254,
      "ack": 9255,
      "abi": 9256,
      "abo": 9257,
      "athen": 9258,
      "bôn": 9259,
      "bướng": 9260,
      "bẹp": 9261,
      "bưng": 9262,
      "bson": 9263,
      "bbon": 9264,
      "bjor": 9265,
      "bami": 9266,
      "bryn": 9267,
      "cù": 9268,
      "cấn": 9269,
      "cọng": 9270,
      "cạm": 9271,
      "cmu": 9272,
      "cran": 9273,
      "cine": 9274,
      "cci": 9275,
      "cùm": 9276,
      "celi": 9277,
      "ctic": 9278,
      "czy": 9279,
      "crunch": 9280,
      "dượng": 9281,
      "dặc": 9282,
      "dúng": 9283,
      "dăm": 9284,
      "dậm": 9285,
      "dượt": 9286,
      "diếp": 9287,
      "dine": 9288,
      "dder": 9289,
      "dhabi": 9290,
      "exe": 9291,
      "ete": 9292,
      "eis": 9293,
      "epi": 9294,
      "ethy": 9295,
      "ehr": 9296,
      "eise": 9297,
      "fy": 9298,
      "fê": 9299,
      "fay": 9300,
      "fam": 9301,
      "fes": 9302,
      "fad": 9303,
      "fun": 9304,
      "fol": 9305,
      "fana": 9306,
      "gp": 9307,
      "gau": 9308,
      "gội": 9309,
      "gạc": 9310,
      "gma": 9311,
      "hm": 9312,
      "hó": 9313,
      "hù": 9314,
      "hế": 9315,
      "hộc": 9316,
      "húc": 9317,
      "hia": 9318,
      "hển": 9319,
      "hap": 9320,
      "hạm": 9321,
      "hẵng": 9322,
      "iu": 9323,
      "iz": 9324,
      "ier": 9325,
      "ies": 9326,
      "ity": 9327,
      "ium": 9328,
      "ides": 9329,
      "itol": 9330,
      "ibrahi": 9331,
      "jq": 9332,
      "jang": 9333,
      "jama": 9334,
      "jain": 9335,
      "kè": 9336,
      "kiếu": 9337,
      "kad": 9338,
      "ket": 9339,
      "kpi": 9340,
      "kry": 9341,
      "kja": 9342,
      "kali": 9343,
      "kiếng": 9344,
      "keller": 9345,
      "kkaf": 9346,
      "lr": 9347,
      "lx": 9348,
      "lơn": 9349,
      "luộc": 9350,
      "lẳng": 9351,
      "lét": 9352,
      "lâng": 9353,
      "lèo": 9354,
      "luyên": 9355,
      "lỉnh": 9356,
      "lds": 9357,
      "lama": 9358,
      "ltar": 9359,
      "lward": 9360,
      "mụ": 9361,
      "mta": 9362,
      "mải": 9363,
      "mốt": 9364,
      "mớm": 9365,
      "mướt": 9366,
      "mtt": 9367,
      "mdg": 9368,
      "nán": 9369,
      "nện": 9370,
      "núng": 9371,
      "nand": 9372,
      "níu": 9373,
      "oor": 9374,
      "ous": 9375,
      "oun": 9376,
      "oed": 9377,
      "off": 9378,
      "ozo": 9379,
      "ockel": 9380,
      "p2": 9381,
      "pô": 9382,
      "pơ": 9383,
      "plu": 9384,
      "p25": 9385,
      "pall": 9386,
      "pcc": 9387,
      "pette": 9388,
      "pets": 9389,
      "pdf": 9390,
      "paley": 9391,
      "qi": 9392,
      "qo": 9393,
      "rc": 9394,
      "rp": 9395,
      "rê": 9396,
      "rưới": 9397,
      "rma": 9398,
      "rượt": 9399,
      "rest": 9400,
      "sỏ": 9401,
      "sữ": 9402,
      "sất": 9403,
      "sần": 9404,
      "slu": 9405,
      "shai": 9406,
      "sắng": 9407,
      "săm": 9408,
      "sủng": 9409,
      "sman": 9410,
      "sẳn": 9411,
      "sine": 9412,
      "sche": 9413,
      "spar": 9414,
      "stro": 9415,
      "skin": 9416,
      "sander": 9417,
      "sụng": 9418,
      "spam": 9419,
      "swartz": 9420,
      "scatch": 9421,
      "scud": 9422,
      "tè": 9423,
      "tề": 9424,
      "tời": 9425,
      "tành": 9426,
      "tti": 9427,
      "tắn": 9428,
      "tắp": 9429,
      "tủi": 9430,
      "twin": 9431,
      "tms": 9432,
      "tcn": 9433,
      "tmouth": 9434,
      "uma": 9435,
      "uts": 9436,
      "uổng": 9437,
      "vc": 9438,
      "vù": 9439,
      "vầ": 9440,
      "vung": 9441,
      "vảng": 9442,
      "viển": 9443,
      "vla": 9444,
      "vọc": 9445,
      "vèo": 9446,
      "vẵn": 9447,
      "vãi": 9448,
      "vine": 9449,
      "vander": 9450,
      "veli": 9451,
      "vằn": 9452,
      "vaux": 9453,
      "winter": 9454,
      "wine": 9455,
      "waf": 9456,
      "wur": 9457,
      "wgli": 9458,
      "xó": 9459,
      "xố": 9460,
      "xắt": 9461,
      "xôn": 9462,
      "xúp": 9463,
      "xuốt": 9464,
      "xốt": 9465,
      "xẩu": 9466,
      "xéo": 9467,
      "xcốt": 9468,
      "yc": 9469,
      "yi": 9470,
      "yar": 9471,
      "yad": 9472,
      "yester": 9473,
      "yami": 9474,
      "yann": 9475,
      "yent": 9476,
      "zf": 9477,
      "zer": 9478,
      "zing": 9479,
      "zie": 9480,
      "ía": 9481,
      "ôliu": 9482,
      "đanh": 9483,
      "đản": 9484,
      "đếu": 9485,
      "đúa": 9486,
      "đrô": 9487,
      "đỉa": 9488,
      "đụn": 9489,
      "đtd": 9490,
      "ơng": 9491,
      "ễng": 9492,
      "ỉn": 9493,
      "ợng": 9494,
      "ủn": 9495,
      "nge": 9496,
      "ngở": 9497,
      "ngáng": 9498,
      "ngle": 9499,
      "ngụp": 9500,
      "ngill": 9501,
      "nhg": 9502,
      "nhò": 9503,
      "nhó": 9504,
      "nhơ": 9505,
      "nhử": 9506,
      "nhữ": 9507,
      "nhình": 9508,
      "nhang": 9509,
      "nhin": 9510,
      "nhiểu": 9511,
      "nhạnh": 9512,
      "nhẩy": 9513,
      "chọ": 9514,
      "chỏ": 9515,
      "chực": 9516,
      "chter": 9517,
      "chãi": 9518,
      "chớm": 9519,
      "chùa": 9520,
      "chtwe": 9521,
      "chino": 9522,
      "thx": 9523,
      "thưở": 9524,
      "thòng": 9525,
      "this": 9526,
      "thổn": 9527,
      "thùa": 9528,
      "thpt": 9529,
      "thrin": 9530,
      "trư": 9531,
      "trứ": 9532,
      "trược": 9533,
      "trôn": 9534,
      "trát": 9535,
      "trét": 9536,
      "trầy": 9537,
      "khập": 9538,
      "khal": 9539,
      "lài": 9540,
      "phới": 9541,
      "phực": 9542,
      "phàng": 9543,
      "phào": 9544,
      "phỉnh": 9545,
      "phễu": 9546,
      "phrey": 9547,
      "quánh": 9548,
      "quis": 9549,
      "gir": 9550,
      "gito": 9551,
      "girl": 9552,
      "tag": 9553,
      "take": 9554,
      "tagon": 9555,
      "tatum": 9556,
      "rae": 9557,
      "rai": 9558,
      "raq": 9559,
      "rari": 9560,
      "raku": 9561,
      "oty": 9562,
      "choru": 9563,
      "ayel": 9564,
      "aylward": 9565,
      "ania": 9566,
      "antham": 9567,
      "anmar": 9568,
      "annan": 9569,
      "anony": 9570,
      "anthro": 9571,
      "angry": 9572,
      "hole": 9573,
      "homar": 9574,
      "hope": 9575,
      "hodg": 9576,
      "hovah": 9577,
      "khiễng": 9578,
      "aid": 9579,
      "aide": 9580,
      "aiah": 9581,
      "aidg": 9582,
      "aol": 9583,
      "aorani": 9584,
      "ausch": 9585,
      "aubrey": 9586,
      "ind": 9587,
      "insi": 9588,
      "inson": 9589,
      "inness": 9590,
      "conce": 9591,
      "chỉa": 9592,
      "toang": 9593,
      "toanh": 9594,
      "toạc": 9595,
      "tomas": 9596,
      "torah": 9597,
      "todd": 9598,
      "loè": 9599,
      "loáng": 9600,
      "lois": 9601,
      "lowe": 9602,
      "loud": 9603,
      "khoải": 9604,
      "khoàng": 9605,
      "emory": 9606,
      "thum": 9607,
      "thuât": 9608,
      "quyệt": 9609,
      "amo": 9610,
      "amos": 9611,
      "amip": 9612,
      "amnesty": 9613,
      "ersk": 9614,
      "dodo": 9615,
      "dodi": 9616,
      "doris": 9617,
      "dogs": 9618,
      "domain": 9619,
      "eno": 9620,
      "enson": 9621,
      "ends": 9622,
      "encia": 9623,
      "enberry": 9624,
      "enjin": 9625,
      "dira": 9626,
      "dingo": 9627,
      "diet": 9628,
      "diva": 9629,
      "diff": 9630,
      "direct": 9631,
      "digital": 9632,
      "cứa": 9633,
      "lud": 9634,
      "luth": 9635,
      "lula": 9636,
      "luca": 9637,
      "luis": 9638,
      "luce": 9639,
      "luci": 9640,
      "tuf": 9641,
      "tuscan": 9642,
      "tip": 9643,
      "tir": 9644,
      "tius": 9645,
      "xuông": 9646,
      "iard": 9647,
      "tuyêt": 9648,
      "arca": 9649,
      "ardu": 9650,
      "artem": 9651,
      "areme": 9652,
      "vika": 9653,
      "vibro": 9654,
      "vishna": 9655,
      "vienna": 9656,
      "vivre": 9657,
      "đoái": 9658,
      "ngoai": 9659,
      "ngoãn": 9660,
      "phites": 9661,
      "rius": 9662,
      "rider": 9663,
      "ritz": 9664,
      "ales": 9665,
      "alma": 9666,
      "ally": 9667,
      "aless": 9668,
      "albright": 9669,
      "nguyen": 9670,
      "basil": 9671,
      "bacil": 9672,
      "bapti": 9673,
      "baehr": 9674,
      "esi": 9675,
      "ghìm": 9676,
      "ghiền": 9677,
      "ghts": 9678,
      "ghema": 9679,
      "lada": 9680,
      "labs": 9681,
      "bull": 9682,
      "buster": 9683,
      "burun": 9684,
      "buett": 9685,
      "sop": 9686,
      "soon": 9687,
      "soren": 9688,
      "sound": 9689,
      "soviet": 9690,
      "roth": 9691,
      "robo": 9692,
      "rous": 9693,
      "rowe": 9694,
      "roche": 9695,
      "rosey": 9696,
      "rodney": 9697,
      "xel": 9698,
      "thom": 9699,
      "thoai": 9700,
      "tholic": 9701,
      "thompson": 9702,
      "thoreau": 9703,
      "cole": 9704,
      "colin": 9705,
      "coles": 9706,
      "copper": 9707,
      "cogito": 9708,
      "elberg": 9709,
      "elbrot": 9710,
      "elaide": 9711,
      "chio": 9712,
      "chihua": 9713,
      "nei": 9714,
      "neon": 9715,
      "nevar": 9716,
      "nephites": 9717,
      "ord": 9718,
      "orville": 9719,
      "lean": 9720,
      "leen": 9721,
      "levi": 9722,
      "lega": 9723,
      "lexico": 9724,
      "levy": 9725,
      "levine": 9726,
      "lil": 9727,
      "lithu": 9728,
      "lipi": 9729,
      "liver": 9730,
      "limor": 9731,
      "ostrow": 9732,
      "dada": 9733,
      "mie": 9734,
      "mies": 9735,
      "mile": 9736,
      "miami": 9737,
      "mixing": 9738,
      "àoo": 9739,
      "nguôi": 9740,
      "104": 9741,
      "106": 9742,
      "10h": 9743,
      "dùm": 9744,
      "muru": 9745,
      "muỗng": 9746,
      "tery": 9747,
      "hiu": 9748,
      "hili": 9749,
      "hija": 9750,
      "hitch": 9751,
      "hillis": 9752,
      "hilton": 9753,
      "sida": 9754,
      "siza": 9755,
      "siya": 9756,
      "sitop": 9757,
      "sidney": 9758,
      "caí": 9759,
      "case": 9760,
      "cage": 9761,
      "cave": 9762,
      "catholic": 9763,
      "matra": 9764,
      "majo": 9765,
      "madel": 9766,
      "maeda": 9767,
      "magel": 9768,
      "mashel": 9769,
      "vusi": 9770,
      "192": 9771,
      "1915": 9772,
      "1912": 9773,
      "1933": 9774,
      "1944": 9775,
      "1939": 9776,
      "hub": 9777,
      "hux": 9778,
      "huân": 9779,
      "humbo": 9780,
      "huaorani": 9781,
      "isin": 9782,
      "ishi": 9783,
      "islam": 9784,
      "isaiah": 9785,
      "kier": 9786,
      "said": 9787,
      "saima": 9788,
      "mãng": 9789,
      "ree": 9790,
      "rez": 9791,
      "reinh": 9792,
      "retro": 9793,
      "rebel": 9794,
      "recaptcha": 9795,
      "thía": 9796,
      "tedyou": 9797,
      "ted2008": 9798,
      "bane": 9799,
      "suarez": 9800,
      "sumatra": 9801,
      "gok": 9802,
      "gour": 9803,
      "gooch": 9804,
      "chateau": 9805,
      "chagall": 9806,
      "bing": 9807,
      "bingo": 9808,
      "bige": 9809,
      "bihar": 9810,
      "biff": 9811,
      "bible": 9812,
      "bobo": 9813,
      "boja": 9814,
      "boing": 9815,
      "borah": 9816,
      "bower": 9817,
      "hyde": 9818,
      "hypp": 9819,
      "usa": 9820,
      "usharam": 9821,
      "asw": 9822,
      "aster": 9823,
      "ashe": 9824,
      "asper": 9825,
      "ascus": 9826,
      "asdf": 9827,
      "niu": 9828,
      "nion": 9829,
      "nipe": 9830,
      "nium": 9831,
      "niuk": 9832,
      "nigel": 9833,
      "hak": 9834,
      "hadi": 9835,
      "wear": 9836,
      "dex": 9837,
      "debora": 9838,
      "deqo": 9839,
      "deborah": 9840,
      "geni": 9841,
      "rana": 9842,
      "randall": 9843,
      "random": 9844,
      "things": 9845,
      "lane": 9846,
      "lando": 9847,
      "lanza": 9848,
      "lanic": 9849,
      "medi": 9850,
      "metz": 9851,
      "medic": 9852,
      "newswe": 9853,
      "newark": 9854,
      "xoè": 9855,
      "xoăn": 9856,
      "típ": 9857,
      "sangu": 9858,
      "adelaide": 9859,
      "toni": 9860,
      "lyne": 9861,
      "nah": 9862,
      "nacho": 9863,
      "nadia": 9864,
      "nazi": 9865,
      "nature": 9866,
      "naboko": 9867,
      "nachtwe": 9868,
      "marble": 9869,
      "marian": 9870,
      "duran": 9871,
      "duflo": 9872,
      "robben": 9873,
      "ates": 9874,
      "atle": 9875,
      "attia": 9876,
      "atment": 9877,
      "etto": 9878,
      "líu": 9879,
      "saw": 9880,
      "safe": 9881,
      "savan": 9882,
      "saks": 9883,
      "sakkaf": 9884,
      "jobra": 9885,
      "jolly": 9886,
      "jolf": 9887,
      "joie": 9888,
      "johanna": 9889,
      "lina": 9890,
      "linke": 9891,
      "quentin": 9892,
      "weber": 9893,
      "pete": 9894,
      "petra": 9895,
      "pedro": 9896,
      "rug": 9897,
      "ruổi": 9898,
      "rudy": 9899,
      "rubin": 9900,
      "rupert": 9901,
      "156": 9902,
      "cambri": 9903,
      "sonica": 9904,
      "carlos": 9905,
      "carrie": 9906,
      "koblin": 9907,
      "cum": 9908,
      "cuội": 9909,
      "bec": 9910,
      "bey": 9911,
      "sequ": 9912,
      "sevi": 9913,
      "seal": 9914,
      "sethi": 9915,
      "seatle": 9916,
      "mana": 9917,
      "mankoff": 9918,
      "videos": 9919,
      "berlow": 9920,
      "bernie": 9921,
      "bercken": 9922,
      "form": 9923,
      "formal": 9924,
      "paz": 9925,
      "path": 9926,
      "pati": 9927,
      "pablo": 9928,
      "ked": 9929,
      "kew": 9930,
      "keats": 9931,
      "lles": 9932,
      "1812": 9933,
      "1880": 9934,
      "1870": 9935,
      "1875": 9936,
      "1885": 9937,
      "mom": 9938,
      "moby": 9939,
      "mooc": 9940,
      "mowgli": 9941,
      "shine": 9942,
      "shell": 9943,
      "shnan": 9944,
      "trilogy": 9945,
      "polo": 9946,
      "poor": 9947,
      "poup": 9948,
      "gado": 9949,
      "gade": 9950,
      "gabe": 9951,
      "gagar": 9952,
      "xix": 9953,
      "bone": 9954,
      "impass": 9955,
      "vetica": 9956,
      "111": 9957,
      "117": 9958,
      "huyệt": 9959,
      "sandor": 9960,
      "santee": 9961,
      "lesbian": 9962,
      "lestari": 9963,
[...]
